[PAD]
[UNK]
[CLS]
[SEP]
[MASK]
và
của
có
các
là
trong
được
cho
với
đã
người
không
công
một
những

để
tại
khi
về
đến
năm
##i
này
đồng
ở
ra
từ
hiện
nhà
đó
nhiều
trên
ông
việc
bị
vào
cũng
thành
nam
đầu
thể
theo
ngày
làm
như
bộ
sự
động
chính
định
số
quan
sẽ
nhân
gia
việt
nước
lại
trường
chỉ
dân
quốc
sau
phải
anh
hàng
thông
1
cơ
điều
vụ
học
thời
hội
trung
nhưng
##ng
còn
phát
thực
tôi
hơn
chủ
an
2
lý
hành
hợp
biết
nhất
viên
con
văn
qua
đang
đi
đối
trước
mới
sinh
nhận
cùng
sản
giá
cao
xe
thì
ảnh
thị
chức
thế
dự
đường
hình
tư
đây
xã
cả
trình
do
nghiệp
xuất
tỉnh
án
mà
tác
rất
hà
đại
báo
kết
tiếp
##t
tế
dụng
nội
điểm
nguyễn
tin
thủ
thu
vì
cầu
nên
giải
3
thanh
lượng
##m
tình
cấp
phương
kinh
bình
mình
lên
l
bảo
tài
đề
tiền
##a
khu
lực
thi
triển
bản
tăng
doanh
liên
toàn
nay
sở
hai
tổ
cách
năng
phòng
vẫn
tâm
phố
cuộc
nói
giao
tổng
địa
5
n
mỹ
diễn
2017
tới
quyết
tháng
minh
pháp
tp
tự
tra
quy
lớn
t
bà
thống
khác
thương
cần
m
phần
vị
huyện
hóa
đạo
đội
mặt
tập
phạm
4
##n
chưa
đình
cô
ban
trưởng
bệnh
tạo
trị
giới
chúng
đất
quả
##u
nhiên
bạn
trọng
gian
thường
ý
sử
xây
rằng
ty
chị
lần
độ
ngoài
bằng
sĩ
chiến
dựng
triệu
tuy
thấy
khai
tham
tuổi
nghệ
chí
10
đoàn
tục
khách
hoạt
em
hiệu
tỷ
điện
vực
yêu
tiêu
đưa
họ
hệ
bán
thức
hay
máy
đơn
nghị
s
mạnh
tiến
luật
tiên
nguyên
tính
gần
chất
quá
cảnh
kỳ
tích
trở
phẩm
6
khoảng
nào
sống
bên
quân
quyền
sáng
thứ
nếu
khiến
tượng
bất
hoàn
bắt
vi
kiến
trang
đấu
đặc
cáo
hồ
vừa
khó
kiểm
chuyển
nhiệm
bố
biệt
giờ
đổi
đánh
c
trẻ
bàn
hải
xử
gây
000
sát
7
chế
quản
đông
diện
ăn
u
vấn
cảm
cổ
nữ
tịch
vậy
cứu
sách
d
chi
hộ
hoa
lập
giáo
đều
truyền
lợi
lịch
8
viện
##ấy
tốt
12
hòa
thiết
mang
dịch
##o
giám
phó
giảm
ubnd
mức
loại
chung
từng
sơn
giúp
hoàng
tìm
9
phục
ta
cá
thêm
tên
tiếng
kế
dẫn
ca
chia
giữa
mua
giữ
dùng
du
ứng
đức
thân
lời
vệ
##ệt
tay
mẹ
đạt
trận
sức
trí
nhau
##h
thái
phụ
lúc
ngành
chuyên
thuộc
hướng
xác
nơi
muốn
trợ
nguồn
chương
bóng
vũ
châu
b
dù
phí
ngay
chứng
chiếc
tử
phủ
danh
trần
biểu
giả
kiện
vận
rồi
bao
tranh
11
hết
gì
mỗi
biển
mạng
khí
đẹp
##y
vật
quảng
thay
hoạch
ủy
thuật
tàu
thắng
ngân
nhập
lê
sao
hậu
rõ
phim
vốn
chuyện
nạn
lãnh
thư
bỏ
hoặc
phong
so
xuân
biến
dài
bởi
ninh
sân
trả
##g
nông
dương
vùng
xem
hữu
2018
khoa
liệu
lao
mọi
ký
cái
đảm
gặp
quận
cây
mục
bắc
y
sẻ
lưu
tố
đá
ba
phá
mất
đoạn
cuối
biên
đốc
##p
phân
tiết
vô
xảy
20
cố
di
hưởng
chồng
đời
mở
trực
chiều
cạnh
ngọc
đủ
nghĩa
long
nhỏ
kể
bài
chọn
trạng
tuyến
đặt
ai
vợ
nhóm
huy
cụ
cán
tướng
chuẩn
đúng
đảng
phía
gái
hạn
câu
xét
luôn
nổi
lộ
hcm
quang
tất
bay
trái
cục
nga
tương
sang
luận
mắt
sắc
v
2016
tấn
xuống
thuận
##23
đóng
khăn
dung
nhật
đô
đáng
góp
phú
##hiểu
phép
hỗ
lễ
tải
ngoại
nhạc
30
hồi
cứ
đăng
chống
đà
usd
khả
bé
thủy
h
ít
cộng
nữa
tây
thích
yếu
hỏi
cung
nghiệm
tinh
trách
cường
thần
tuyển
môi
dưới
kim
sơ
tội
15
tối
ghi
áp
gồm
lan
khẩu
cử
nhằm
chân
dục
đa
trò
gọi
chú
cực
nhanh
riêng
đào
duy
đ
chơi
kỹ
tuyên
trao
thuốc
rộng
ch
tân
mùa
thiếu
##c
hồng
nâng
khá
hạ
vòng
phản
nó
lòng
lệ
nghiên
kỷ
yên
ô
nhìn
phúc
càng
đồ
giang
hương
đàn
phường
khởi
hại
linh
căn
chạy
tuần
vai
mô
bác
đảo
ấy
sư
thiên
hôm
bí
buổi
##s
sông
đầy
bước
trai
vàng
nghi
thiện
môn
độc
xúc
mai
nằm
##ậu
đêm
lương
thảo
á
phiên
lĩnh
thật
màu
chấp
nuôi
vọng
nguy
tòa
cư
niên
hàn
đứng
ng
thơ
lâm
nghiêm
tưởng
giấy
mặc
mẫu
th
toán
thuế
thôn
tai
trà
gửi
ngờ
hùng
phạt
tiện
phù
xin
nghề
triều
xế
g
ngôi
chết
tỏ
##cửa
trương
vượt
khoản
hát
đôi
lo
khẳng
đẩy
thoại
xuyên
ấn
x
dễ
##ối
áo
##nh
ma
quý
hiệp
xa
nặng
cải
vui
tết
tô
lớp
dành
hiểm
khỏi
phóng
âm
nghĩ
viết
100
tuấn
phút
khắc
cháu
trú
sai
bức
a
18
thẩm
nền
hlv
mong
sâu
bổ
dũng
kéo
khán
mại
kiếm
hút
0
lâu
tín
mã
mưa
r
tầng
nghe
chiếm
lửa
giống
trồng
suất
vinh
mộ
thúc
16
khỏe
lai
khánh
dầu
nỗ
ánh
sớm
thưởng
trạm
nợ
miền
quán
thấp
dòng
nghỉ
song
tr
thăm
xanh
nhờ
ương
họp
14
tạm
khám
thác
phi
25
tiểu
cà
trì
chữa
hưng
đỏ
soá
tù
thất
13
giai
bão
đón
tránh
dấu
thậm
làng
thừa
rừng
thầy
tức
chăm
chu
50
đau
thí
tỉ
tốc
##ửa
chỗ
17
mối
nhớ
trời
hạng
lạc
đổ
quê
tặng
chắc
thử
lỗ
truy
đáp
chỉnh
phiếu
buộc
2015
siêu
nhiệt
nối
19
23
trắng
phê
ổn
loạt
cha
liệt
màn
24
da
may
la
bày
chợ
vài
hãng
võ
tri
tộc
giành
quay
dưỡng
lũ
uống
tái
##ch
sóc
tĩnh
cận
vay
binh
nh
##2
nhu
vẻ
22
dư
cháy
món
đâu
21
##ật
thuê
##e
vĩnh
quanh
khúc
niệm
kịp
máu
chẳng
chuyến
họa
cập
nóng
sửa
lượt
hạt
dn
bảng
mắc
lái
chờ
tờ
núi
ưu
thù
chấ
hạnh
xó
vong
cầm
dịp
trải
lựa
gắn
lá
lạ
biện
đỗ
nghèo
bầu
hôn
thụ
vn
suốt
chứ
khối
phậ
cát
##ập
dừng
trump
vững
phan
túy
luyện
nhấn
thao
can
sỹ
500
cắt
khủng
cũ
cam
ngồi
lộc
thú
thầu
vân
sn
tắc
bồ
gốc
trụ
sợ
chóng
thượng
cánh
tầm
nhiễm
ích
mừng
địch
sung
quen
trấn
bãi
ước
the
đài
tồn
bánh
bùi
niềm
dạy
mời
bến
khảo
tận
nêu
40
mật
bạc
sắp
âu
sóng
29
##út
thẳng
chặt
trăm
cân
kích
hy
nổ
thải
chở
tôn
lẽ
lược
##ủng
trô
coi
kh
lô
thoát
hài
lệnh
quỹ
thỏa
##ắng
phổ
tim
đích
chữ
đột
27
thịt
ts
dạng
##rút
quần
bờ
sài
cựu
##ường
băng
suy
kiên
nắm
ngăn
ngủ
200
26
xung
đàm
k
cấm
sạch
chục
##ắp
vương
nhi
nhẹ
chặn
##ậy
##kém
nghìn
bật
rơi
vé
lục
nhắc
dần
tạp
28
cấu
đọc
dây
cặp
kẻ
quà
chắn
to
##ắm
cuốn
xấu
kê
chụp
trộ
sa
ngô
p
hè
giác
ngại
hầu
hãy
lạnh
gòn
đám
kịch
bạch
mê
vườn
video
đương
chàng
mỏ
bại
##ỗi
khóa
tá
hào
##uối
pv
##ạt
ngắn
cp
thôi
lào
sàng
thiệu
hâm
2014
tú
súng
##óc
gió
thọ
giản
huế
tphcm
đen
sắt
rác
khô
nguyện
chứa
đua
ngập
##âm
phước
km
gi
mái
nha
bè
bào
cơn
thai
dữ
xăng
gương
trưng
cưới
tấm
thổ
thuyền
huyết
hấp
thua
đt
đỡ
ha
nhuận
syria
ngũ
khuyến
60
dõi
buôn
ngư
cườ
chăn
lãi
chào
cướp
lưới
pha
kính
bot
gà
kêu
sứ
đinh
đem
xong
ràng
clb
đồn
khiển
ngàn
league
liền
đòi
hơi
phán
giàu
ly
mẽ
khấu
300
ung
##át
hằng
tnhh
in
gtvt
31
duyệt
thăng
hoài
điển
##iêm
huấn
giết
chậm
ngã
mơ
##ừa
ngữ
gắng
##ược
trúc
hư
##ất
tùng
buồn
bá
kiểu
dao
ngụ
bù
đh
tường
bền
khổ
##ếp
rượ
rau
khẩn
miễn
xu
huỳnh
xứ
bắn
nộp
đợ
đoán
70
q
chiếu
chạm
thách
ngang
facebook
kg
đoạt
lẫn
đặng
huyền
ấm
giọng
##ồng
trại
park
dứt
hiến
cú
khen
hủy
##rời
kháng
man
thuyết
hiền
gỡ
dọa
tụ
giậ
##ứa
phấn
dàng
kênh
gỗ
ví
##ắt
mạch
hề
ngôn
quỳnh
2013
sữa
tông
ơn
trinh
hẹn
##hiếu
##1
tt
lắm
nai
tươi
hang
góc
rủ
mưu
thpt
gói
đe
vỡ
clip
##r
kiề
đạn
vết
gấp
đỉnh
tang
đợi
duyên
bơ
tiềm
cờ
cai
mạc
sạn
qu
lẻ
##ấm
sàn
bhxh
phẫ
đuổ
e
tóc
trừ
dáng
bom
chánh
35
ẩn
csgt
ga
giáp
bang
nét
khuôn
bậc
cương
bây
lúa
trốn
tung
xô
lở
nàng
##hứng
lắp
giam
phượng
iphone
đai
ngừng
kho
thận
non
chút
vua
2020
thạch
##l
phức
tam
##âu
giảng
80
lợn
già
hỏng
đèn
củ
mắn
kia
mềm
khoán
trích
đền
tràn
tệ
bạo
căng
kèm
cty
túi
new
quên
thẻ
đứ
tuyết
xả
uy
bò
01
internet
tand
##3
##ống
su
##ới
ảo
đừng
đậu
khung
chảy
đẳng
khóc
90
taxi
cẩm
than
ép
ngọt
sốt
xâm
##x
gd
hoang
xinh
hứa
dược
đâm
bê
xưa
##ạo
hầm
400
trúng
##km
lành
đập
ghế
##èo
rà
##ọc
45
nhũng
canh
dụ
chó
sổ
dàn
tán
thịnh
trùng
##ào
##d
tháo
huống
top
huynh
trầm
chẽ
nắng
dày
trữ
##ẹp
giỏi
2012
hiếm
đáo
bó
tiếc
mũi
loạn
dạ
rố
apple
ro
nhượng
gạo
hẳn
cản
dị
36
ngộ
túc
kiệm
##ẫn
ven
kín
làn
##ện
cup
loài
cộ
city
ôm
##ầy
viêm
cơm
mệnh
donald
va
táo
lồ
hoảng
nhiêu
lò
seo
fan
cổng
thờ
2011
chốt
uber
tôm
cãi
tàng
##ha
trăng
điệp
lãm
mầm
##ấu
thép
treo
##b
##êu
thảm
dám
tả
hỏa
dinh
cống
i
dã
tháp
##30
loan
##on
xương
nhánh
mùi
lãng
trưa
ngon
hđnd
não
nhảy
cỏ
ttxvn
ruột
tổn
lang
thở
apec
##ông
nhãn
đậm
mực
ngầm
vang
dâu
##ầm
nạ
malaysia
chinh
hàm
đam
tan
chùa
bốn
##ột
ngoái
vờ
viễn
điệu
rẻ
khắ
ngưỡng
vỏ
vỉa
trục
mát
tu
##uân
mổ
che
thả
san
##ọt
bụng
đắk
bv
tứ
asean
xứng
bia
##ồi
vướng
nhắn
rào
2010
hô
ư
thang
32
hổ
chả
hồn
heo
thúy
vạn
bitcoin
vũng
hảo
ngự
khoe
giây
ân
cắp
lam
##kg
hung
camera
cứng
dọc
đốt
##ẩu
cốt
lọc
my
##k
real
mc
xá
miệng
thụy
lù
giấ
mù
yến
campuchia
khố
đê
##ầu
sôi
singapore
bái
vẽ
nấu
đo
150
tốn
khiếu
ấp
600
tảng
f
nhĩ
lấn
lăng
##5
vắng
eu
ùn
điền
lặng
co
bám
ái
kì
mảnh
trậ
bữ
vietnam
gợi
sea
chìm
liêm
đắt
bốc
sáu
##er
mu
world
hđqt
hoan
hò
games
buýt
sắm
mau
tuệ
gọn
##20
ẩm
kiệt
lưng
lính
##il
giấc
ph
dờ
lầm
nở
mv
cất
tròn
trọ
lấp
##trứng
lạm
##iếng
33
trống
pgs
##ục
đạp
chừng
iran
is
thiệp
mốc
37
al
bếp
ngãi
samsung
##uồng
bột
phỏng
ngõ
800
##ing
khổng
váy
ôtô
hối
qatar
qđ
thuần
arsenal
vĩ
sót
mộc
##iết
thạnh
bích
cụm
vươn
gan
nhịp
chè
rạng
khâu
hagl
khát
thó
dắt
##iễn
chiêu
##hập
rét
ủ
ql
tắt
700
huệ
hiển
nhự
đan
34
bi
mãn
show
lân
google
tre
mét
thoá
hđxx
nề
vả
##ừng
bát
##iều
tàn
chín
ngọn
bks
ruộng
trâu
say
38
bón
leo
trừng
nhan
mồ
reuters
indonesia
khoáng
55
mi
dĩ
com
nhưỡng
o
bảy
tủ
khê
ngợ
washington
lệch
mây
tiệc
lão
ghép
đắc
ii
gánh
khuyên
bách
bhyt
australia
gs
tạ
ác
##ốt
trọn
giày
dọn
nhí
xi
đẻ
chelsea
cđ
##ọa
thước
bđbp
ổ
na
săn
##bekistan
ngừa
bớt
răng
00
mượn
euro
75
sánh
2008
đầm
bú
bụi
##ứt
đán
ho
grab
rắn
quyên
vẹn
luân
cn
2009
xưởng
vịnh
##ăm
lạt
thoải
cẩn
nhơn
kẹ
khơ
nhung
nhã
##úc
of
hot
02
kiêm
tha
đù
béo
rỡ
ngực
ngắm
lưỡ
thự
cưỡng
khoảnh
chim
nhé
đống
trân
sen
##êm
khuẩn
pin
##đ
tuất
sốc
york
xà
##ính
diệu
##ảy
cỡ
ukraine
voi
xoay
##uông
tách
mảng
lee
mến
hòn
##huyền
chúa
bs
philippines
yết
muộn
quét
bì
lề
##iếu
bề
cúp
giáng
42
iraq
vở
ám
hiếp
ức
##8
phu
bra
##hưu
đế
đằng
thợ
120
khang
nn
game
thcs
ngà
bỏng
ché
mười
đự
canada
csđt
soạn
gìn
ngạc
israel
đeo
nụ
pc
rực
côn
vội
cò
putin
madrid
tráng
khoác
de
##iễu
51
ghé
lít
thâm
##úy
trùm
##iệm
htx
galaxy
43
bận
tn
luồng
ốc
trộn
ptnt
liêu
nđ
bọn
ki
vây
2007
khớp
mạn
48
39
gom
rãi
múa
hôi
tụng
mông
bỉ
lí
úc
quế
65
quyến
nhá
##ném
mt
nhì
honda
bô
gạch
bế
lật
49
chai
oan
lắk
tám
dội
liverpool
btc
41
chua
vành
khứ
men
vff
##ước
52
vđv
olympic
##ằng
##ương
bỗng
47
dỡ
đọ
##ùng
nhẫn
fc
thô
gò
hoành
gãy
lọ
46
news
smartphone
2019
nguyệt
bưở
phế
pccc
05
lđlđ
rèn
ao
250
son
rũ
hỗn
dốc
nghiệ
paris
hụ
container
dồn
bàng
pa
ngạch
oanh
44
im
vải
đãi
##hánh
nhạy
hở
chênh
2000
nã
mì
mặn
lụt
đè
barca
ronaldo
phun
nhở
hi
cự
xao
khép
vợt
jong
xạ
chà
nứt
##22
khe
loa
nhnn
ceo
nhàng
chẩn
cúng
mttq
##ấp
lữ
mourinho
trạch
khéo
măng
bổng
dở
ranh
tần
ồn
sương
mũ
ơi
##4
vấp
lộn
sanche
cđv
bể
mọc
##ận
album
sụt
út
63
vitamin
mờ
xỉ
##ốm
hcv
phụng
lỏng
cáp
đành
pvn
cồn
london
##hức
##ặc
phổi
web
03
gã
rịa
nlđ
un
messi
john
hắn
##7
##us
ben
mỡ
08
trượ
06
54
nhọ
dò
quã
2006
##ướt
kcn
thoáng
tò
09
vượng
mẻ
vtv
united
đĩa
lỡ
rồng
53
mày
châm
gdp
##ướng
ả
dán
xôn
group
premier
07
đứt
64
hoãn
72
##olero
lụa
nsư
flc
chê
tím
67
kong
thổi
đớn
kè
##00
rạp
niê
##ẩn
57
barcelona
kon
thắn
rể
vá
xí
hong
dịu
##ách
##uốt
ôn
thầm
vck
nho
đuô
ong
##rạch
rộn
manh
min
95
cạn
hái
van
56
chì
chán
gas
showbi
dưa
ào
khanh
hước
04
đòn
##rắc
sâm
lường
900
bẩn
đạ
nhị
58
cửu
ê
##háo
đôn
##6
##mm
mexico
##ữa
khải
tà
uyên
hen
nướng
##co
khuyế
láng
chôn
kem
mtv
robot
99
85
vò
##ếm
##cm
đoan
2005
lắc
điên
ngơi
hé
gác
vene
ghen
kíp
tour
tơ
mò
đúc
gũi
thắm
59
chép
bưu
hố
quái
diễm
lăn
chanh
##snd
bồn
cay
hs
thoả
tum
##yết
##ỏi
cóc
j
tx
giãn
gián
live
##ót
youtube
##uela
62
né
online
pu
ntm
hoá
sun
ham
bộc
đáy
xót
1975
##uộc
lát
vy
saudi
iii
miss
ama
tê
ctcp
rộ
##òng
rập
moscow
gay
khoan
băn
ngón
##ết
##15
má
1990
plus
khương
68
mẫn
xh
##iêu
rẽ
ngoan
đệ
myanmar
khoăn
mươ
bùn
james
##9
##45
hân
quỷ
phơ
cuba
toyota
phanh
cúc
1968
110
##ặt
thắc
chửi
cntt
vu
quất
ngó
##ậm
##f
vã
phe
dả
buông
92
lặn
khái
neo
2003
##19
lố
cốc
tóm
phiế
hãi
slna
đắn
rẫ
2004
atgt
argentina
hạm
microsoft
mạ
##v
chọ
##hét
tị
##hầm
kề
soi
gố
tẩy
muỗ
xích
##uyện
nhạt
dạo
đính
##da
vớ
mác
phiền
oai
chuộng
xơ
hận
sáp
##huân
no
tạng
ngỡ
hẻ
##ụp
lđ
khôn
afp
ford
cua
david
##mía
fdi
##ẩy
61
bắp
mó
##hoại
nồi
kẹo
times
cở
california
vksnd
##ốc
thám
1999
mòn
đụ
tí
le
##lây
nôn
thấ
diệp
pvc
hóc
##an
ka
vov
giọt
cang
ct
nô
tottenham
##1995
88
phô
chui
hollywood
79
mắm
lậy
note
cand
lõi
xư
rung
1997
đạc
ròng
trễ
66
điêu
ri
champions
bar
kỉ
vs
nhôm
màng
##man
android
vú
lui
tấu
xôi
lơ
xẻ
twitter
kĩ
##áo
xii
##sacombank
rỉ
##ây
vks
##ịnh
inch
bội
iv
xê
michael
nan
tb
##ển
trăn
nhặt
lũng
2030
tặc
vác
fb
won
đbq
mỉ
se
vnpt
ti
đấm
##ấn
quỳ
hiv
nén
lhq
dạn
bidv
cắn
77
obama
ớt
virus
qh
gieo
đếm
chip
evn
kép
táng
tao
sướng
sabeco
kẽ
2002
khiếp
manchester
kí
1993
hit
rã
lẫ
##os
thạc
rong
léo
viettel
ngẫ
bin
nghịch
130
82
paul
xen
dỗ
girl
golf
tước
1994
##ẩm
##ặp
vietnamnet
gai
phì
khuê
khao
cm
shb
nạp
li
sạ
cong
tv
86
giếng
ea
rắc
81
air
350
hán
neymar
mm
bong
73
chiểu
windows
1992
dl
and
cù
mí
##son
##ằm
giã
website
ván
76
afghanistan
180
lung
##ụy
##áng
dì
lún
rải
2001
seoul
160
1996
kông
thoa
71
mụn
chiết
nato
vét
ls
thỉnh
cám
hoạn
ngượ
mo
vịt
karaoke
nàn
bẫ
##úp
airlines
catp
xoa
69
##ăng
ráp
78
phà
##psg
ngần
đb
##ượt
thềm
ap
sét
me
bọ
cọ
nhậ
nghê
kurd
chay
##10
74
##iếc
##es
noel
##ốp
arabia
index
west
fpt
big
bướ
agribank
lau
úng
nhộn
sạc
pakistan
ni
heroin
khoang
##ưa
rù
1991
star
87
tw
lạp
##en
khan
ttg
đbscl
face
bank
91
nâu
lừ
palestine
thò
mark
1980
84
phả
đốn
đệm
chen
##ãi
vỹ
eo
giàn
land
set
##ực
cúm
italy
saigon
##ấc
##húc
dặn
chéo
98
afc
grand
83
bôi
italia
sườn
cỗ
##ealand
ập
vh
be
1989
đớ
cnn
quát
jack
muôn
115
hã
89
bđs
scandal
tuyền
2021
idol
khuya
ngoạn
vtc
black
##uýt
macron
ron
gặ
1998
##ạch
văng
##ráo
w
ntk
125
uss
rò
cõ
ngọ
milan
dẫu
##ẫm
tem
tngt
mìn
vặt
bóp
hường
ji
chốn
vncb
hoi
xé
đò
pro
hao
moon
xuô
kha
metro
tokyo
startup
thủng
##hấu
bún
rụ
##al
##ard
up
răn
nức
mini
model
đặn
sam
attp
93
han
rao
gu
bill
đục
vladimir
one
jordan
harry
##ớt
instagram
96
sim
young
140
am
vietcombank
email
cừ
bt
khaisilk
ứ
##uột
hye
phẳng
##gầm
##ắc
##bank
oceanbank
97
xoà
ngỏ
thà
bạ
##ờng
nể
khoái
hủ
##hăng
xù
juventus
led
1982
miên
##1988
ios
daily
nhàn
nghẹ
thán
hyun
tấp
giò
##21
à
khốn
hiên
ngài
nhược
##ed
go
liga
angela
conte
tró
rễ
rụng
đăk
ngụy
tản
thỏ
##ải
hose
##1987
1986
nà
keo
international
vù
trán
2025
chư
xổ
hoạ
giặt
đu
cqđt
ttvn
##gb
nộ
nang
##mcp
rổ
2022
hốt
ạ
tui
vạ
##ền
jerusale
xì
##in
los
trơn
ngả
jose
futsa
##la
alibaba
ló
nq
dê
dai
robert
đả
post
hờ
450
1972
94
antt
gam
##show
xám
tý
daniel
vnexpress
xắn
lanh
bo
kt
miện
1945
##ịch
náo
tia
coutinh
http
ngò
justin
bđ
khỉ
miệt
##ẳng
ru
êm
feder
utd
thính
ách
si
bp
series
105
phao
qui
rô
dép
1985
giề
len
xoá
thốt
doãn
nxb
cưng
st
rước
power
xay
##ẹo
china
oxy
##ùm
vietjet
cu
rú
ghe
ngậm
hoà
chiên
sành
mịn
tom
đun
thung
##or
chile
tát
axit
##òa
run
##land
jae
krông
xk
nu
##uyễn
vỗ
ồ
uốn
sưng
fed
toan
220
jin
atm
nguộ
dang
bloomberg
thuở
oscar
##tivi
tăm
trailer
bẩm
alexi
bén
##nlđ
sỏ
##vn
##ỳ
day
##xh
đũ
hoán
open
cớ
##16
##ưng
tro
thản
uông
170
nghẽn
ngây
##ùy
unesco
nọ
##gõ
nhiễu
nhủ
quýt
bch
mị
intel
chén
kệ
hun
chưng
nóc
gen
ươm
logistics
tỏi
xoắn
it
brexit
##ếch
play
gộ
inter
mercedes
##12
old
festival
cuộn
##na
##uốc
bã
chò
bung
resort
##ia
el
chan
pep
home
trá
dí
đẫ
ia
##ẹt
phác
fa
##um
bayern
lu
thớ
nhố
trù
mail
lén
dẻo
thốn
hợ
xị
rớ
ké
kiêng
dặ
nản
toa
sjc
you
kyo
sport
##óng
hãn
logo
##1984
sà
1970
lốp
##ời
net
##hục
##18
everton
bệ
thiền
cr
bmw
caq
##50
gates
super
1983
as
##ey
fox
tpp
cưa
sputnik
chù
martin
ngoặ
nadal
tesla
victoria
thê
jung
kìm
like
steve
cấn
shin
sọ
điềm
kane
##tctd
uỷ
rạn
ali
dong
wenger
liêng
fifa
guardiola
jun
##1979
sexy
george
113
lờ
ja
dè
kạn
angeles
mít
108
vạc
gươm
ná
then
arab
mr
ksnd
##nd
##pmb
lukaku
sú
bts
giòn
bênh
hả
hnx
sony
tho
ngù
750
dortmund
##ùi
phở
toản
dnnn
blhs
##idane
visa
sắn
rôn
tillerson
chợt
on
gv
##hèm
vắc
bẻ
bbc
nghé
##ma
pi
gala
sxh
##ựa
ipo
##40
quấn
lư
yamaha
chớp
trổ
vietinbank
gt
##do
##ói
hyundai
đao
phông
lg
tạc
viền
suv
hari
##67
sò
phàn
reo
laptop
fi
lốc
oda
##oc
en
sv
360
chằng
rock
asian
dông
for
1960
##ạp
vun
khâm
radar
##éo
green
gang
nhuộ
las
ve
##ệ
lay
protein
spa
ngán
pla
ireland
nón
1967
diên
ướp
bus
320
asia
jackpot
joong
soo
quạ
ubkt
jolie
cia
1000
cnvcl
qltt
pop
xuyến
hd
ơ
ngạt
thuột
cataloni
càn
made
rỗ
##oét
##gừng
love
bxh
bikini
trọt
bịt
forbes
cafe
sanh
té
king
yemen
giàng
pleiku
sưở
nghẹt
business
sar
sum
nần
tiệp
sê
##ép
##tqg
trứ
sấy
maria
1981
cap
101
thomas
##fford
cabin
dâ
bql
nv
getty
ngơ
##rầm
ren
time
chdcnd
vẫ
##ra
##gân
ac
##11
taylor
1973
1954
1976
lđlđv
vcci
##ểu
sờ
hít
kevin
id
##ượng
ruồ
ray
chris
##ro
view
us
trĩ
1977
hp
mkhitaryan
đố
xít
##ảng
tgđ
##râu
xiv
out
bính
merkel
séc
thon
rưỡ
##qs
khử
hee
240
musk
sá
nk
antonio
thề
##va
1974
silva
johnson
##17
lượn
vietlot
##46
jean
vina
miura
cau
vhttdl
sh
rót
burnley
ghê
yang
aubameyang
thiêm
duẩn
ttgt
wi
noo
##14
wb
trũ
1978
nokia
##uyển
hoằn
mcgrego
ounce
mike
##92
lì
peter
tae
135
vietgap
afrin
bon
chạ
street
kiển
mận
súp
miu
boy
##ức
##bcs
petrolimex
berlin
victor
pharma
assad
sả
colombia
pyeongchang
pogb
##47
##le
##ya
guardian
##uki
gđ
mw
thiều
music
##one
awards
##yên
##ka
##ley
650
shop
103
##ặng
formosa
mả
giục
nến
yoga
wall
dĩnh
giỏ
bangkok
alex
##ợp
vhtt
peru
harvey
mủ
type
##13
cb
mỳ
hớ
rảnh
dj
red
đúp
nsnn
hù
toát
116
##ie
bongda
he
sx
kpop
monaco
ufc
trút
##re
##field
##ml
nilon
vnd
lhp
hanh
sky
550
đàng
thy
wonder
cụt
cd
maduro
abu
lán
at
mão
127
nhỉ
cược
atleti
##ợt
vinamilk
ppp
##24
cđcs
fanpage
gá
ế
230
190
gdđt
voice
ar
##sa
vung
##ình
##uôi
##orata
cover
chang
kremli
iot
anthony
104
texas
phớ
next
rơm
team
dằn
ccb
nhai
pen
dubai
jones
pr
hđtv
##cc
clint
tnmt
www
diesel
gó
store
libya
hạc
hungary
tdtt
##iệu
đẽ
126
all
##ùa
ths
##ton
disney
1971
tua
vat
pixel
nem
##ce
uae
kate
kiể
##sen
##iệc
quí
selfie
155
##usd
##ánh
trệ
saint
abe
##ến
tq
hcb
global
chô
tằm
stress
leicester
capital
102
erik
vo
southampto
vãn
ipad
giơ
nhm
vpf
128
nhâm
btv
bu
há
ngá
260
re
aff
##ler
usb
barack
vgp
dragon
ram
jeff
rơ
##ong
112
tpbank
nhằn
livestream
##ea
marketing
nhạ
##ười
cristian
vt
bửu
vegas
munich
áng
camp
nasa
gameshow
##hads
hacker
tkv
yong
gtg
ngổn
eki
stephen
nơ
##rưng
bale
quặ
latin
lửng
lđtb
yeon
##1969
khoát
cshs
boeing
svđ
sports
louis
idli
ngao
##é
nhuệ
blockchain
##ic
gb
thuỷ
secret
280
múi
cc
roi
##ảnh
lim
##hỉnh
giê
alexander
woman
hawaii
serie
##ne
##th
florida
vinasu
##1965
jennife
oán
kền
1962
ngu
##52
smart
jo
valencia
phen
1950
pho
xú
##hích
woo
scott
canxi
##as
níu
mayweather
ngẩn
xua
##ém
vỏn
lự
op
tandt
motor
ak
nhả
ankara
106
oh
##kv
qualcomm
check
ngạn
##ưởng
luyến
phai
ố
fe
1964
đờ
vest
năn
blue
tct
tru
##uck
ctv
mekong
seung
cholestero
auto
114
juan
trác
##ar
app
kali
emmanuel
đực
ub
sergi
nhăn
210
rex
ryan
ku
##ựu
rốn
teen
rê
yonhap
garden
141
suare
kang
swift
hất
oled
heat
nnptnt
suôn
mattis
upcom
hoay
pt
photo
111
car
ferrari
109
buồ
trau
luis
giặ
vp
tớ
williams
infone
nano
klopp
massage
hanoi
găng
sảo
##q
toà
xộn
ốt
mitsubishi
ko
south
aids
270
richard
chớ
trặc
ttcp
##w
trồ
house
cah
cv
1947
hó
thẳ
yoon
cạ
golden
##mp
175
duterte
penalt
kids
##ford
scic
triền
huddersfield
xoan
nham
hcđ
giỗ
1966
rờ
trơ
baby
đái
grabbike
ju
hu
carbon
vnđ
##95
status
insider
##news
mè
jang
##hênh
max
lụ
kèn
huyên
khmer
##ara
wifi
##uckerberg
catwalk
mobile
sina
william
##ca
mobifone
ttck
365
mớ
khỏa
rio
que
vần
##ếu
bsr
118
eli
joo
nick
lđbđ
rá
##ể
rán
khcn
crimea
kiê
fta
roma
##mg
vơ
##kwh
kv
yếm
gym
off
royal
yingl
sỡ
dc
hệt
audi
165
##ki
national
pctt
who
##áy
mix
vãi
tẻ
389
mp
##ênh
silicon
mega
slam
##ry
tthc
ah
bkav
lamborghini
sộ
nhú
francisc
eric
ghề
chiêng
phồn
loã
tkcn
tower
dơi
beauty
solo
salah
kiev
tuýp
hae
mac
sapa
xnk
107
selena
club
gold
##49
rover
gea
cph
119
##uống
rodrig
style
sạp
pvf
kcb
hỷ
đổng
pvp
porsche
bvđk
yoo
hsm
doping
elon
center
erdogan
white
##úng
xx
ndt
carl
vđq
break
##am
pierre
ngời
bella
rồ
##ov
##oài
sanna
adn
hormone
wang
122
marvel
start
cx
gập
pan
bridge
khóm
acb
harvard
##et
weinstein
lionel
rose
ethanol
del
gome
##hoáng
rt
mb
delhi
hinh
##ay
##ẻo
dnnvv
##to
xy
##io
jobs
life
kuala
lã
##àng
liu
charles
emirates
vpbank
850
145
1930
##ba
đkv
tony
##imbabwe
nhổ
xsk
bợ
soobi
##castle
##star
von
chicago
warriors
file
##net
##is
vr
##òe
##ers
mướt
il
##mann
môtô
masan
kén
costa
##lumpur
##1963
lon
cruise
tncs
bai
##iềm
139
##hs
##ine
comey
##hễ
ec
ngớ
hắc
##ts
ngo
dan
micro
cent
121
##bnv
##akhstan
poster
##01
124
##ớm
##datviet
khuynh
pian
diego
chevrole
bhtn
hẹ
nao
nissan
henry
123
##boxing
kelly
vinachem
##st
ken
##ét
exo
jeans
##ội
djokovi
chao
tđc
##uẩn
leonard
kts
miến
fashion
##oái
##el
117
yp
royce
##ney
##homestay
smith
nou
epa
khinh
sỉ
lú
##ette
bst
giở
##uổi
nỉ
pacific
##alace
concept
tencent
khoắn
đhqg
qlda
icbm
hc
angelina
##25
studio
vơi
sab
##hấn
tắn
wto
##de
hdbank
don
sdf
ì
adam
##méo
will
##huần
sedan
##ri
trớ
##35
##haco
rolls
crystal
##ít
nđt
brt
full
lút
petro
##ớp
căm
joe
khoẻ
nd
dream
##ỉnh
ngừ
sex
mễ
lép
nôi
swans
jay
sến
viet
sô
wave
mig
tơi
llvt
##ly
rọ
lexus
salman
media
##abeth
pô
lùn
brown
serge
eximbank
volkswagen
cốp
jackson
bần
brom
inc
laser
138
sydney
techcombank
ctck
lhpn
đong
body
wannacry
belarus
moskva
vamc
nba
##tembin
rodrigue
##se
##tdđ
card
mui
sm
fit
fire
nhô
block
anna
gabriel
hốc
concert
hon
330
bvtv
snapdragon
bangladesh
sủ
universe
derby
mbapp
acid
halloween
##alo
cưỡ
ara
tehran
xperia
airbus
kl
luông
##gr
giẽ
cook
##tbd
american
##fé
khay
héc
oil
mĩ
ke
##uất
images
gạ
giun
##ko
tợn
last
kenned
viii
ocean
134
168
đác
australian
morning
##scđ
##ema
144
##tts
knock
casino
epc
temer
mugabe
aguer
##opec
noi
catalan
##mnd
ssi
iso
256
diva
gỉ
##1959
town
melania
cnc
serbia
htv
trudea
best
hyo
142
pl
nú
lotte
136
xén
chổ
abc
dẻ
nê
sri
pere
htc
war
joseph
vip
quâ
nigeria
rin
roger
kp
justice
calo
khăm
bournemouth
##ta
lab
buffett
lợ
nhác
đấ
qđnd
nguyen
tề
wales
##ẽ
167
houthi
gờ
mccain
sữ
bernabe
data
##oăn
blues
nhtm
##rình
225
saakashvili
taekwondo
158
glee
sgk
bright
test
##hammed
ibrahimovic
teo
##ặn
290
grammy
by
philippe
##1961
thaad
stoke
vế
wars
soft
nobel
##ởi
##tv
340
theresa
lem
##tđ
plo
tennis
##ir
ix
brad
rì
nhe
cmc
christian
khế
lươn
lavrov
island
gram
gar
gio
##artial
ns
137
cienco
lả
napoli
phèn
scotland
north
charlie
##1958
acv
america
##uyền
129
bahrain
boston
ỷ
imf
720
om
vissa
ed
950
vib
hills
mart
bhl
đơ
131
gru
dap
make
nude
##iêng
bcđ
##annes
1946
brunei
deir
nhảm
##100
##953
ten
became
##68
##đt
andrew
nvcc
wef
frank
bct
##ại
central
hằn
radio
samson
nicolas
holdings
water
billboard
bèn
damasc
kalanick
spider
joshua
timor
rooney
journal
##1957
hú
vali
thớt
mma
pay
giroud
nghè
chuồn
macau
michelle
kcx
mướn
horea
tl
qaeda
bruyn
gcn
bush
##rợn
entertainment
bụ
gù
mirror
ngác
bịch
##ech
tó
143
um
hat
##ac
kị
ecospor
jet
johnny
khé
blade
380
watch
156
sin
mode
space
got
##habeco
lin
dẫm
gene
ligue
art
xvii
##te
##ộp
school
riyad
yan
##nbc
##ol
lườ
warren
nắn
xỉn
##150
jesus
174
sevilla
rashfor
santa
sarah
fast
kaspersky
poroshenko
vincom
doji
##ona
with
nách
rườ
195
mỗ
bieber
sharapov
gcnqsdđ
chrome
week
bundesliga
nafta
sara
gong
christopher
152
163
đùm
##ola
hươ
virginia
press
nhòa
133
nom
153
##hugo
manila
guitar
junior
happy
rome
carlos
express
bặ
logic
gov
ecuado
croatia
modi
ó
ltd
tiger
dr
flash
##eller
europa
132
weibo
lady
mon
br
ỉ
vaccin
link
##ơm
480
uav
##mart
lìa
mary
##ken
fintech
first
370
isaac
vâng
##inho
ht
159
jica
asus
hotgirl
hẫ
148
lõ
##lo
arsen
mid
petrovic
pôn
##avos
wood
##pcp
tì
jessica
##hang
biếng
riề
hua
đhđcđ
gở
abs
iq
nhún
hill
ngoã
tvb
rành
taliban
##rapper
dance
mata
tease
gắp
vcpm
hí
cằn
nò
ttatgt
wan
khoé
muống
food
kđt
thố
high
taeyang
##art
queen
gmail
154
nhếch
code
grie
bc
cặn
##ur
asiad
##cmp
stam
gil
flores
stylis
181
joon
ubtư
thiếp
cữ
##ũng
đản
murra
bgtvt
##vo
chần
##guam
##60
mao
pơ
core
##gh
class
147
##j
mố
lác
##ần
qn
phnom
##éc
lõm
dijk
##ev
beach
##cv
ces
sochi
ảm
178
gal
vcb
vec
mah
##nsd
lênh
phàm
pctn
corp
jenner
yahoo
gao
fansipan
##ọng
bla
penh
nặn
brian
jr
bashar
wanna
##ethanol
##ve
##ham
nhờn
beverage
xiaomi
telegraph
nova
hũ
andy
seong
162
hugh
gun
santos
kyung
gẫ
##06
beta
amsterdam
##lienvietpostbank
##07
jakarta
credit
steven
##irma
phui
panama
iceland
##ịt
olympia
tass
exciter
bonsai
kkt
##ada
chat
sir
npk
sol
lb
quẩ
attt
tech
blđ
911
560
nhó
pence
jason
2050
tanh
##53
vnm
vba
nepal
rocker
chạc
420
basel
valverde
én
đvt
phil
lị
kardashian
night
##tw
sán
151
fair
157
sù
alpha
jurgen
bit
##ung
185
phăng
##rông
##purs
blog
nhũ
emma
angelabab
we
##way
fu
mé
pm
ranger
217
sterlin
##id
vự
twice
##berg
##80
hybrid
dmitr
khoá
suk
sủa
moto
ip
free
gp
ria
bphone
slim
castro
##ăk
line
##sky
ds
chừ
mích
ioc
pasteur
only
jm
ari
390
wimbledon
genev
thor
1956
146
điếc
bỡ
lanka
lucas
vệt
##group
roberto
thè
1940
460
sụn
##gary
##gửi
bulgaria
bb
xl
nẻ
flynn
cindy
algeria
##gareth
today
benjamin
176
##0
lượm
cmcn
430
##32
##ner
eco
roberts
164
##sk
jane
qg
##enko
gucci
etiha
ghẹ
ict
citi
##care
ok
qsdđ
brussel
vinaconex
wo
housin
##nxp
##ao
tép
eva
shtt
plv
kham
lope
kar
sggp
440
##hẹn
202
vinaphone
nhổn
ross
mohamed
##ộng
iu
dũ
financial
yu
##xin
pg
bhutan
him
dv
nín
batman
rả
chanel
rạ
##go
casting
your
andre
kait
##addock
990
149
ted
arena
sergey
##arry
310
gplx
gangwon
bủ
romania
marie
tel
stb
##que
omega
412
eun
##54
edition
mar
clark
stone
lingard
205
phìn
##ika
ethere
177
aleppo
luồn
pvoil
macbook
toạ
##ỉa
bruno
bđk
michel
giuộc
##no
##op
book
179
angel
hđlđ
nhỡ
rè
##70
rục
hondura
opera
tuồn
haley
korea
##55
ramos
nhẽ
vó
limited
bali
little
279
mirand
gả
thong
electronic
bike
186
travel
##iềng
bob
marathon
rap
watford
vision
nhầ
jim
marc
cat
lăm
nhõ
##ducati
win
##ero
range
niu
sham
dybal
yen
198
ag
rafael
patrick
##ies
championship
matt
##nam
235
market
france
##ee
183
##ổng
kop
dia
##house
box
lcd
ncb
fortuner
perry
master
boots
vinaline
đtnđ
phỉ
hv
touch
omar
nấ
brent
1955
##kh
siti
rim
nickname
sing
209
cuồn
pnv
kai
##ok
náu
##gadot
po
vnen
espanyol
baltic
cavani
##plus
au
##gan
quẹ
warner
goo
qr
490
##05
hdv
xui
coc
retail
##44
ml
dế
gán
##ana
doha
diana
beckham
netanyahu
francis
adb
##hillary
520
kun
999
rating
dú
dior
houston
gđkt
##ble
ubtvqh
##48
ibm
kiệ
chử
vlxd
digital
ronald
##tech
570
office
201
ge
year
218
avenger
morgan
##angnam
##26
appf
nikkei
táp
##tđb
mars
##ỏm
ivan
ubmttq
cptpp
nutifood
nạc
geun
##me
alvar
##embele
ĩ
172
mall
yểm
mario
xix
197
194
319
gióng
rần
river
vảy
eden
thệ
trê
##ff
jonghyun
pique
heine
sk
display
##êng
tuế
đanh
189
wush
shi
fernand
java
cherry
##91
superma
davis
##hòe
169
630
raqqa
kings
ngưu
axít
katy
##mw
##gpl
titan
##pl
seven
silk
gon
##wood
##ửng
pink
tía
##1948
gps
mún
facebooker
245
blogger
bổn
đờn
bluetoot
212
166
te
room
pk
merlo
##ướp
lebanon
peskov
tweet
192
karate
rí
chá
050
##ja
phom
matic
##arawi
japan
dell
villa
hwa
fans
atvsl
rob
condotel
fsa
system
##hĩa
vic
cốm
navalny
qcg
hiu
cpu
georgia
cl
good
nhản
hđ
genco
bannon
##944
harris
coin
biền
jamie
##line
nệ
206
colorado
171
xiên
bở
maya
edward
hecta
660
point
##tin
alaska
craig
540
ton
1941
chiề
richter
oppo
##ak
dark
trust
##ệch
vin
580
222
amd
mama
report
lake
fellaini
ivanka
##vietnam
bôn
vrg
##ty
##ộc
sbd
remi
walker
173
sp
##lin
aisyah
vồ
edge
innova
vừ
vinso
bond
187
luke
xịn
lewis
research
uefa
palm
hud
273
giũ
producer
page
puigdemont
bentley
hilton
henrik
lyon
312
general
208
thằn
##72
rìa
nghiến
ballad
cpi
##taluy
slovaki
her
donbas
kawasa
216
ganh
single
ktn
ft
stem
215
atp
spd
hê
danang
independent
som
##ram
độn
thoi
196
road
fob
gara
680
mic
dơ
laca
hotel
insulin
thau
xỏ
dỏ
tou
capita
lawrence
cloud
hack
org
anti
shibuya
miami
celta
##erry
count
nbc
science
vtb
yg
##einstein
##oọc
diff
##ĩnh
melbourne
rợ
mclaren
health
##car
marco
3000
##ecb
kuwait
showroom
kendal
##uay
thỉ
khxh
##tc
aventador
đượm
phone
share
project
##krông
hadid
koh
coco
chae
premium
hauer
vcs
trợn
juve
tuý
standard
nỡ
jonathan
##37
184
ronaldinho
buffo
khiên
michig
gạc
coteccon
ssd
##90
kyle
jon
325
161
paulo
boong
eur
nám
luy
kit
gh
ù
sudan
ngố
phantom
isco
lenovo
starbucks
xd
carter
chỏ
263
##idico
alan
roland
##gđ
girls
furious
lẻn
xv
##day
vincent
##ke
bros
ptth
226
nylon
celtic
mafia
romel
pochettin
rouhani
ninja
mcdonald
what
rebound
cồ
blackberry
##39
bad
nct
petersbur
state
ripple
dailymail
vằn
wt
hyuk
##ique
dk
parker
alphabet
travis
199
vinafood
barie
get
##der
nicole
##oải
275
mạt
vigo
ya
ms
##illy
##gerald
##ji
cru
matthew
back
stars
fergus
chồn
jan
##xy
##osul
##ter
ros
##kin
miguel
trick
roman
vol
nsa
linda
255
cchc
vidal
193
gl
hale
285
265
carolina
guinea
vqg
true
##ulsan
5000
urug
730
##lb
640
mane
allen
kabul
ashley
182
hussein
vingrou
##li
##ck
winner
cilic
##spacex
reagan
aeon
xở
batshua
crossover
country
hassan
francois
giồng
messenger
##gk
marcus
203
gồ
295
or
dvd
toronto
trend
##ô
##ation
vna
elite
##cho
dioxin
fulbright
242
ming
thổn
review
đtm
tyson
highlight
cs
760
bít
bả
nong
##hou
think
netfli
viktor
xhcn
sur
tag
talk
sean
##aggio
##bv
sirius
##illa
nike
##iro
ball
caffein
firmin
##awa
##ale
hamilton
karik
hđba
##òi
anderson
gout
hydro
ico
friday
hts
##elvet
##38
##ster
motors
amin
cie
##mo
stanford
pak
evan
488
surface
composite
byt
albert
ú
legend
gel
kenya
ttr
phăn
kerr
key
274
hách
470
hoon
grande
oi
pedro
##ạng
robin
estrogen
##vsattp
ngùn
##sbc
##ylie
rs
danny
##di
pe
bớ
mú
xệ
vivo
fund
tã
ad
samuel
##wwe
001
chamberlain
jimmy
##nkirk
beat
banking
uni
giggs
shape
620
andrea
hỉ
lẹ
airways
technology
##iesta
fda
299
##iếm
##les
kwang
rôm
earth
tskh
sos
204
giadinh
lisa
ttđt
##65
organic
##1949
pablo
vhnt
835
vice
donga
##hực
cđt
ck
dô
##ity
pnj
##heimer
gear
trạc
oxford
hớn
beast
phích
enrique
turnbull
bruce
cara
##nic
siu
207
nhcs
##75
##intercontinental
lpg
csnd
gụ
testosteron
lte
thảnh
coffee
ntd
os
##hc
mun
##stone
##book
khít
243
530
##ens
##29
##500
quẩy
four
barry
##light
##ek
##chi
transformer
hwang
vinci
324
coupe
##51
##ềnh
##úm
bxd
##64
chun
siri
herrera
410
jaguar
sàm
globe
##san
pitt
kiko
simon
bid
columbia
tè
##ghẻ
rạc
316
214
##08
fuji
đuốc
257
design
nasdaq
classic
sub
##59
960
salad
670
rico
335
planet
look
runner
##ier
magic
interest
bh
jud
##cao
##erick
##bu
##den
##enice
##thethao
##eko
goal
bươn
villarre
002
##sson
##ad
mọ
shah
##tion
ernest
university
turbo
photosho
knight
007
##han
whit
channel
##ago
shaw
##88
alli
##derson
baghdad
byung
ace
##sh
nhen
##ms
bell
diệm
bel
kwon
1951
##sg
dhabi
orland
qna
watson
vj
gr
wilson
money
hử
hwas
##well
armenia
mụ
bun
ion
##952
vinashin
dustin
ubckn
đùn
ipv
comment
xiển
dani
sha
##inedin
mesut
##hingya
ừ
##350
ultra
##ssv
siro
bolt
square
##ites
khuỷ
scan
walcot
shinee
1942
343
##ensio
feet
vjc
##ary
780
##ề
##iya
##bolla
manhatta
missouri
mbh
oman
##27
liam
canon
229
lãn
213
vx
gerard
ngốn
máng
##ville
188
frankfurt
jeon
ahmed
pre
hongkong
massachusetts
##hóm
##huế
315
thía
phến
##ment
##our
tể
ngươi
ccn
vít
sanders
##71
virut
doạ
phũ
light
golfer
tuôn
virgin
fidel
##less
catfis
tễ
susan
momo
bân
308
estonia
sitcom
cantho
##ụ
people
đĩnh
##brink
cnvc
force
chẻ
kelvin
yokoham
375
vpop
stevens
floyd
sofia
paradise
stalin
##aracas
hsd
hernande
amg
ab
##ito
##ss
dna
carlsberg
tncn
telecom
##tư
tba
rươ
##ds
pù
macos
vk
##mah
##klam
india
nnvn
675
##rov
port
740
charlotte
só
khờ
viê
##kha
amiăng
##gede
soon
nhạn
vc
wu
aegi
chocolat
karen
211
per
narendra
spectre
hama
rain
mustang
bird
laport
tbm
##stein
820
##74
qp
tayyi
viglacera
atvst
ye
anne
##ip
690
warmbier
hộc
278
ngụt
##amry
hag
đé
##huawe
ukraina
deporti
##79
wayne
damr
thunder
##ủa
wei
##hệch
##1917
bca
marseille
focus
##hcđ
##akers
award
antoine
##ã
##ish
249
##63
kushner
đươc
304
tcn
calisto
med
##rdp
veo
##hững
##ah
diamond
busan
191
##ôịm
cameron
poker
echo
mần
khèn
bét
gaga
hq
margin
nevada
dnt
tbn
##hiễm
met
settings
harley
đkkd
julia
evans
##aki
valentine
sane
trỏ
##iley
khhgđ
malta
coca
##asco
cbcnv
ruby
cooper
##1000
xâu
##pad
nhừ
delta
wiki
cbs
otto
decal
##oàn
##86
kriten
foundation
qcvn
jedi
mikhail
##so
haiti
##hanna
rocket
licogi
everest
hope
##ion
##life
moi
security
##tton
246
385
268
alonso
latvia
cavalier
miller
hbc
edm
##lula
minsk
natali
##vi
quynh
pri
##ristol
balo
audio
bim
manuel
maritime
##ahre
##rợp
suit
##oát
##alves
down
##mb
##lan
302
prime
##85
lạn
iss
1500
jetsta
tomahawk
chibi
deep
future
mk
germain
complex
loren
##ania
gap
huỷ
lily
hoe
farm
har
wendy
305
##side
shutterstock
##36
kdc
logan
930
##power
silat
raptor
quệ
cbi
ttl
ocb
##ini
jorge
##gate
muay
abbas
trans
##oko
oneplus
236
item
##ik
219
##ởm
##nrp
##ault
muhammad
lilama
bosnia
coutur
dow
##28
just
moore
spiegel
puerto
##66
lead
##fox
##sis
bứ
hơ
##ogue
skull
abdullah
usa
sap
##tra
pal
cii
var
muội
##arcelo
510
920
nusra
##era
##ec
athens
##hong
film
tea
##wa
khosrowshahi
btnmt
company
marcos
was
over
snapchat
##terres
graham
caribe
baht
moura
266
kip
violin
chùn
sên
411
sxkd
258
control
ngỗng
##ho
lts
ks
masters
boss
shinawatra
levante
cash
lằn
julian
870
philip
juli
olivier
infinity
4000
747
238
trail
##kley
##ps
bolivia
233
uk
##oshiya
itunes
##ian
tttt
salon
holding
272
edu
osiu
##inox
227
##fa
stream
grace
##yan
boris
bự
980
##ware
##com
aviv
chol
##asep
đần
2035
345
network
management
nép
low
##ker
nè
hiddink
nikki
alba
giỡ
are
bl
##ndn
universal
##enna
lima
dền
đak
cathay
##ld
hello
kd
mõ
nỏ
nặ
##ron
221
bgdđt
meghan
vfs
penca
pick
333
267
##latan
bẽ
##ll
yuri
##shire
great
##iacki
##media
##bps
##ge
olaha
sunny
wright
bvmt
luyn
##ite
mali
vinacapital
săm
evft
ship
##allas
ngoai
wook
emily
356
dara
555
baek
picture
unicef
learning
playboy
##tnđ
story
chxhcn
alexandre
indiana
239
albania
vietsa
bltt
327
##tb
234
cambridge
mit
##78
287
##pedia
soda
mnuchin
wechat
click
speed
kbn
east
##rít
##ành
2024
790
campbell
jeju
##assar
1943
marine
mâ
228
vancouver
ipark
hpg
355
1800
254
224
kiwi
update
880
hart
405
euphrate
##à
252
lgbt
xo
jersey
falcon
khàn
##icardi
family
##ga
770
cruiser
karl
alave
##ling
##tr
liberty
malcolm
garros
##svn
nhò
cola
alexa
##rad
siberia
huê
##bo
moody
csb
##ber
rachel
##dong
ter
hiroshi
singh
software
##un
toả
đtq
sìn
ep
legane
297
##eman
080
alma
bvn
dà
458
pena
spark
oliver
mil
đì
ahmad
590
sapphire
electric
debut
425
pp
##du
cole
beo
plx
marian
237
douglas
match
##civic
amy
quặn
1920
xvi
garcia
csu
drama
swee
##lu
yun
td
##tgt
oecd
heather
seri
des
tie
mân
cape
##db
phoenix
savills
ufo
fran
ethiopia
not
sneaker
293
blv
eps
##phaco
##tbxh
##stan
pennsylvania
tulip
##ina
msn
pá
talent
seal
262
##ou
##61
##ery
pwc
vksndtc
glass
law
caribbean
##ico
aag
tpcn
288
mbb
##uk
arnold
football
860
248
##continental
sigma
kur
##akota
spot
##41
##itanic
##ucci
##chenko
lổ
thvl
282
tành
pac
that
##õm
seattle
sms
serena
para
hyori
call
cookie
##olo
mcmaster
301
event
vne
##txh
ae
kbs
depp
gigi
vogt
dab
austin
chơ
nice
gôn
sebastian
dollar
javier
arthur
nin
##dđt
arv
##tel
oreo
abdul
porto
side
lewandowsk
ohio
322
##83
264
##be
hdr
hpv
wong
marina
ian
patriot
##gram
html
denis
317
hsc
798
247
##76
gpxd
incheon
aston
beng
goldma
##rs
nhữ
tuýt
elle
toshiba
powell
##02
end
đoa
##sandro
phapluatpl
blanco
nhơ
##nes
vnr
potter
vespa
iron
##1939
ss
lincoln
death
luc
foli
314
##tan
motta
marca
thoắ
oánh
##thong
625
ex
chum
riverside
wembl
uế
hànội
##elotti
cairo
novosti
ldg
davidson
ariana
seabank
##trong
##city
435
584
475
bull
der
villas
840
bươ
sbs
##age
##pa
##tasco
under
hamburg
aimag
fax
1900
##cs
shoigu
cgv
mhb
lego
##rmit
ngoi
lè
nixon
##ylian
kq
525
sr
##ira
lock
word
024
ferdinand
##mới
novak
forest
tab
sofa
quăn
##ino
cún
##tp
##lemar
##vin
##ef
251
walter
241
sme
##jon
xiao
alfred
vỉ
##81
amber
512
##ợ
masa
sym
bitexco
sharp
roadster
arm
##ị
mrs
##obile
pos
##ella
sound
##astana
phò
laurent
grabtax
nộm
vinatex
ogc
vpb
ngoa
trề
camero
##húng
##back
shark
maurici
care
cvt
sl
hall
toác
mohammad
pompe
sachs
##po
ic
mir
##torino
##ran
adrian
hoóc
hip
uche
##time
nvidia
dawn
short
##ancy
kw
710
010
tddc
stanley
howard
tcc
kis
hormon
bae
nõn
##93
boo
coli
drive
đay
nua
bilba
jesse
232
franco
##ul
biế
##kel
##42
alam
monster
##offline
hyeon
clo
##ist
hnb
dana
british
mel
mợ
ransomwa
##hyun
summit
party
##hktt
chk
##orussia
nation
shell
pà
volvo
mia
tmv
tttm
pă
les
cvđ
##ab
##ovinam
##down
ifc
328
helen
845
oto
socola
chơn
rockets
đoản
284
claude
walt
##hoạt
steel
##ap
papua
bryan
navas
ctr
demi
386
##ger
nhặn
ev
qq
khư
dó
kante
detroit
##arles
##oom
##43
##qg
wa
##burg
khuân
ttc
courtoi
maldives
##mon
##long
outland
invest
hoen
nườ
talkshow
342
##betis
icd
ttks
##port
kent
hyung
kao
straits
##moto
bua
catalun
jeremy
##grad
espn
shanghai
##pper
vientiane
aaron
##77
ghost
nkt
oa
jd
ousmane
jerry
276
##titi
##58
##ợn
hop
##ều
##uller
##ure
244
natri
shyn
katie
gm
##van
tone
231
##400
corporation
lindelof
orteg
urani
ox
289
sil
##acho
soul
##lcnt
thaibev
alwalee
medvedev
vidif
đhqghn
brother
dồ
##rèm
610
tk
mer
phùn
uv
vama
mèn
edin
pol
marily
wen
332
##ê
movie
lủ
##ổi
istanbul
##oằn
cyrus
host
354
kr
carlo
hemsworth
collagen
this
##ày
driver
tét
##57
cui
three
##ẻ
ipu
cj
marin
plan
296
##arrick
##ranson
matxcơ
##ynski
artist
##yme
##ire
##ska
##tic
309
cheo
yo
donetsk
joyce
341
phillip
bqt
mùn
##96
##heim
versa
wagne
349
rem
fat
geographic
292
hui
bx
##sm
ness
##oses
chul
fortune
lisbon
##tmđt
mono
1925
303
##ington
277
mina
307
modric
940
1080
lip
leng
valentin
ntnn
415
investment
352
tnt
voan
##kt
búk
tbkt
##ane
oxfa
##erbaijan
ragnar
toilet
adida
xoo
##by
281
jacob
##uma
danilo
286
##bek
things
par
circle
roosevelt
monro
pants
nượ
##eibar
vbi
##town
two
##tnn
810
465
didi
##antq
saleh
despacit
brooklyn
english
jare
##ium
emmy
##song
nicotin
bõ
ita
dragons
accord
tasigna
shs
nvx
##racer
asem
##một
lauren
pci
445
charoen
homepod
alessandr
walmart
gordon
melinda
##sierra
undergrou
abbott
assistant
##yra
energy
laura
hawk
heart
261
##ball
##box
mnangagwa
##daily
factor
nld
271
from
murphy
triumph
torres
cbcc
298
ppc
ips
##cl
fabreg
somalia
##31
##etravel
##gpbank
##đồng
pepsi
if
##loris
qb
413
macedonia
##bre
leip
rinh
nolan
rb
band
janet
name
kiền
olive
##ova
machine
list
vnt
scrambler
drone
tuỳ
hotbo
active
sisi
runnin
teve
##pro
andrey
mach
odebrech
nelson
vws
##arder
404
tệp
martine
alice
recep
loáng
silver
bioga
cặ
##bi
##kov
deutsche
737
sụ
##giê
ngọa
329
saa
ttcn
ctg
468
daca
ice
chườ
sporting
nature
##oka
pve
9001
##rics
##df
naomi
##live
vasco
##600
stt
bẹ
##từ
crown
hero
holmes
lipid
clippers
valley
huang
khò
745
##69
bur
##tar
nán
enterprise
piston
tẩn
navi
pele
269
rica
##milk
xxi
##her
mobi
úa
vtvcab
fedex
marriott
confederation
blind
ky
hutec
##ểnh
##tex
evnnpt
way
ctc
nhụ
monte
makeup
##eus
##ius
evngenco
tunisia
dennis
prayut
830
311
capta
##ju
isi
nie
313
##iểm
ning
755
dominic
306
allegri
possebo
ghpg
kuc
lhtn
sik
##nia
glucos
1927
##03
georgin
##á
peris
salmonella
petrobra
luxembourg
leste
318
016
##link
haban
028
nghiê
service
rhymastic
christmas
russell
1929
##jpy
##ex
moren
rệ
##eta
oprah
mbc
jeep
igor
##abbank
tree
maroc
kheo
##dtc
trư
bigbang
sheikh
panther
brit
bio
woods
##rin
##dison
je
##ựng
ngan
gelexim
menu
elsa
mummy
jp
thuỳ
head
pb
ilo
nestl
408
vinacaf
afd
##oa
hans
college
lebro
py
moss
benfi
gum
##ide
##ơ
##emake
wat
253
hoả
kyodo
chồ
336
msc
##sin
nưa
wings
cardif
bpck
ever
grai
##í
ttat
259
pư
384
subaru
finance
ree
##px
solar
cross
kin
cal
flagsh
hana
358
abdel
joy
women
368
challenge
bsc
##wd
pet
dele
gien
##handmade
fsb
ibra
419
blake
robinho
tộ
willia
hathaway
shoot
372
789
alt
phè
asen
osaka
wanda
363
##let
326
see
##he
shane
vê
##èm
rosa
pirlo
cut
##hựu
owen
jcp
##jax
##200
himalaya
dual
khkt
gdtx
basic
gổ
christie
bach
rick
rey
vắn
##09
mascherano
alexe
etf
##fc
eiffe
##anye
364
##che
##ờ
##300
kido
guatemala
lèn
cech
hitle
##eddie
turin
##hrir
indie
churchil
fort
now
svc
balkan
kitty
ngoằn
##joy
nsx
777
rớm
499
018
429
df
ubck
##more
wta
##yama
aung
##roline
loch
##99
kiatisa
##hill
den
pvd
slovenia
yoochun
bravo
walk
348
##bc
icon
kurt
khau
moo
kei
1936
petr
gallery
lênin
##lade
##73
she
sd
kroo
chase
et
##ommy
388
hand
##watch
turkmenistan
server
##dy
337
970
##fun
##ology
gô
cad
##ski
gray
đọa
##con
291
antonov
##và
raul
bass
well
##apad
tomato
simeon
bmp
sci
cool
bigc
##gen
haute
buffaloes
jake
##klđ
module
##men
367
tablet
pct
##ebay
turpin
western
nielse
rubi
##hu
baker
qs
##56
residence
mou
lockhe
kuo
grant
559
rx
505
351
nện
jenkins
century
hurac
amp
mom
##ó
tiffany
brahmo
mission
pearl
##bar
##wan
##out
rita
ivy
evnnp
virgil
jeffrey
garage
ketamin
urban
334
carat
361
feel
masha
##lô
1931
##yev
sturridge
newsweek
richardson
proton
890
##ate
##84
jw
idemitsu
feed
die
qa
stephens
multi
kidman
orion
hatchback
huynda
saipov
carton
ahn
nail
347
##inco
##bella
imac
dyachenk
##kitic
buffet
hr
phạ
odyssey
cotton
ttxd
services
evo
##ious
dylan
070
dae
fig
##lds
##kip
ngổ
##irene
claudio
##vnd
ellis
##up
yellen
utah
marado
##viet
##04
ctđ
markle
338
kobe
stan
oracle
asan
yasuma
stella
karim
stones
stop
tele
ndvn
lenin
kan
##of
##rat
confed
curry
##adele
##dan
kara
sbt
av
atalanta
thompson
xpvph
salvador
meko
495
grey
##hen
##heeran
366
khoả
format
##ano
##tnd
guinness
jamaica
mandala
let
vivas
tiế
elvi
gdđ
sukho
persi
color
congo
##ica
##bbank
glei
##ph
láy
##ụt
đtđ
maps
pác
koi
pê
##point
##250
centre
hì
cpp
##sq
1937
prince
photos
bhn
expo
##320
437
affleck
double
725
ssport
books
##eine
đna
060
##tdnd
nhè
orange
catherine
##aya
kid
nikola
iuu
luxury
meltdown
megapixel
jyp
fury
##khu
283
vv
franklin
587
gpu
mino
##iếp
bmi
cor
##ston
securiti
##ata
##shima
##đtvn
##ue
##ảo
##ow
nhk
##andberg
cocain
stock
##lđt
353
##1938
rotten
##coming
##33
504
special
##smt
321
wilshere
icloud
panoram
ry
576
##isco
##380
ne
hub
mich
fake
beer
##ru
henrique
number
765
jenny
nhám
motion
talal
sale
oe
alvare
090
##bb
##pe
budapest
cctv
##ori
scg
hindu
##ns
382
mori
##phê
neil
pass
339
abac
743
seng
pvs
##xx
claudeci
357
skype
##oev
535
bitconnect
fiorentin
fashionista
denim
pvtex
pdv
sahara
346
nathan
asahi
ramsey
marshall
phung
ncc
##em
stege
##anja
371
gdpt
dicaprio
waw
toni
##and
thơi
374
rod
islamaba
mont
ryu
pokemon
england
after
atlanta
##hao
##rinka
nina
limousin
paralympic
globalgap
eugene
safari
gabon
##rr
##ship
003
semi
##ume
376
mơn
bernardo
tvn
##awaco
443
daewoo
##derland
ballet
interpol
bukit
##uka
lém
485
##obby
chác
eib
cypr
##nsut
##eera
sushi
448
josh
##sip
##tec
snow
brigitt
hac
schum
far
never
##dtv
##ashup
chã
lens
mba
377
vè
romeo
winfrey
bakay
methadone
techfes
armat
demo
env
hvn
iris
pui
socieda
kitco
khalif
erp
ichi
search
twin
799
jia
##apes
idc
tnv
##bqp
foxconn
caesar
flycam
kristen
vinamed
explorer
##sar
##jo
upu
price
tar
##wayne
icc
lynh
##fu
392
apg
##ỏng
florentin
mumba
##eda
##gia
chiba
pvi
bradle
bent
##82
##sat
bartomeu
clasic
robben
##hipper
pbgd
##ọp
##imex
387
##engue
344
dean
ful
##rini
cheng
##ban
1200
428
quick
napoleon
nauert
odess
##eh
action
hamas
##đb
doan
oc
khiễ
toure
##cp
##key
coincheck
prudential
cleveland
athletic
havana
alaba
kosov
666
social
424
409
ghouta
hashtag
phay
##world
roll
##iola
yama
362
wells
vam
787
##bach
##mnđ
##petro
418
thồ
how
reatime
##bq
copy
union
est
##ib
veri
432
##ene
##gam
##af
ớn
kono
medipla
vinpearl
dynamic
hyon
##dt
fernande
chề
alumin
vre
brg
##ls
##ks
greg
tiki
leon
hdb
berkshire
bixby
peugeo
shopping
roadshow
navy
##đvn
brand
##gd
ltt
chau
smallin
roy
leverku
mátxcơ
racing
vạy
combo
wido
đbvn
paolo
jankovic
##rê
mal
nichola
drop
##125
studios
abl
##laden
kơ
hicks
đmst
##bij
##elli
maga
910
##62
##ack
##mar
malaga
elant
##tte
bri
##ogo
rua
##ccabe
012
samp
buk
airbnb
rebecca
pkk
kasim
lithi
blair
##bot
##ồm
yasu
cuỗ
baidu
alps
##rodman
wire
qnc
total
boa
##enberg
hsx
kba
##wall
##chai
##sxh
##alibr
rafa
usaid
siam
##hp
peters
mendo
##thi
rên
gol
andres
##ombie
sb
caro
amoled
baldwin
parkinson
saigontourist
angkor
455
khalid
kean
585
##sophia
595
399
ander
thuý
veron
trươ
##ghb
599
logistic
##choles
exynos
dayana
dave
winst
##bl
mad
##theo
xavi
đoá
##aar
urenco
otamend
vsd
kayak
cuban
lane
##ạnh
gate
588
litecoin
microsd
village
pavel
lotus
##ĩu
##370
##adio
ró
##gar
##elix
545
##cnqsdđ
##adilla
hopkins
mền
##arif
##fi
hỡ
##kan
vietbank
casa
615
csm
##agawa
402
sala
bordeaux
education
muguru
dispat
##beck
pano
hapro
montrea
gsx
boj
och
##oong
photocopy
abramovic
##kvn
monsta
hard
##sport
season
294
elly
##lia
pham
form
##elton
020
##sc
##hl
pacqui
paracetamo
vladivosto
iowa
395
atlantic
academ
sunni
marcel
vci
api
##je
god
bloom
minnesota
vedette
wolbachia
pereira
vepr
##outi
575
##ois
sì
belle
442
394
stockholm
yakhshib
workshop
airblade
herald
sat
durant
##bic
cuộ
pnc
##kíp
annabell
neti
##oran
##kar
produce
panasonic
gdck
gran
##bia
vncer
##bat
##waymo
##hành
gdn
thethao
liễn
vatican
leroy
ash
##vhd
##ingham
tango
cayenne
scb
cbr
##syc
378
buri
rở
neville
527
berg
elise
sc
schmidt
futures
unite
kbc
roe
connect
kgb
santiag
533
cub
##min
855
hey
##ous
##don
illinois
florence
robusta
naked
pound
irina
hmd
383
dx
##2017
geo
577
ps
kangaroo
philadelph
partners
##ver
eastern
ward
##cham
454
snap
ventur
##ovich
ins
mei
copa
unilever
tuabin
discovery
yale
##ward
cep
##vico
transer
bac
wind
##ew
rốc
##agra
##air
jalil
tăn
ventures
shu
gwangj
hên
satra
##án
fight
##orough
##jal
btt
935
okinaw
rupee
technologies
mistur
1933
##âng
##mark
smile
##lux
403
672
rich
422
359
fantasy
stuttgart
finals
##greatest
##kit
938
##jungle
bose
triple
hadi
tak
373
hom
kaka
##pol
lactal
camil
kingdom
##hía
shadow
jupite
paragua
nitơ
bueno
hep
troll
héct
cw
cic
ipod
##của
##uan
lala
##ell
milk
eln
715
##rwich
##yo
mề
rom
què
sheraton
##indanao
sophie
kilo
gerald
hnm
##shi
vims
redm
005
hin
session
maxwell
396
save
565
magie
vertu
politic
trade
julie
pat
loe
voh
nsi
##ari
aaa
##ula
vpn
always
masdar
louisiana
five
taro
field
kra
ghì
sinai
##ria
kung
##play
438
331
##astel
705
belleri
054
##max
scaramucci
schalke
yeovil
middleton
winter
##34
princess
451
sense
cfr
393
##ryland
417
528
balon
wel
427
##ndice
##aro
516
##cia
cocktail
defense
alain
rahee
##rembo
hbo
phoneare
eye
spring
romer
linds
##iệp
##htt
chartere
fm
wikileaks
##enfone
curie
457
ricard
morocc
okc
502
kerry
mri
otc
busquets
klitschk
nottingham
ngoisao
carroll
palmas
eagle
wilder
hwan
moor
004
##per
025
##lv
##wg
##yeon
excel
gama
mahmoud
kompan
filler
outside
alliance
verge
clinke
##hyd
grow
515
nest
##break
##001
btl
dic
##ích
##900
khà
jumanj
lithuania
sepang
ebb
casemi
1934
##nvn
work
fisher
406
##jet
802
##haka
459
699
tằn
ré
##ceu
644
bôlykhămx
corticoid
sunrise
mountain
aires
ngoạ
553
601
626
##nan
##bd
geisha
apache
monkey
southern
es
rướ
543
hunter
ber
thiến
##97
maute
##ý
aero
dề
hollande
cstt
995
##ppe
##ẻm
##ttm
mrcc
puka
wal
##vsc
jeong
hochiminh
journey
eleven
tcvn
##antes
kumar
dead
##yoshi
##ub
##lf
pine
##aj
wol
evergrande
oregon
amanda
##eu
brooks
darre
platin
moitruong
collins
##chu
biker
mtp
nord
##kntc
phuy
604
##tek
578
##picer
vầ
ecoboost
huffington
punggye
phuket
##doisong
gaddafi
amida
vw
farc
gra
falca
cax
imo
489
##dex
688
elo
##ovic
federic
dantri
jpmor
follow
cyber
ring
hms
khè
##lon
ttx
##ep
pắc
bee
schul
##bin
##combank
##post
lia
040
choice
malware
nippon
acoustic
vinmart
poly
fabio
litva
higua
yêm
xuyền
đìu
colin
##rf
##film
nimit
nieto
djib
mother
cif
##tq
hđt
ave
##etta
##rd
rossi
ibrahim
louvre
stewart
wisconsin
vpsf
walton
panda
aden
nvl
645
tor
cast
##hamas
662
nhùn
##ess
ớ
golovk
heynckes
nis
##sef
praha
agenc
dãn
##team
##code
vanga
ubs
duke
223
leica
##toshi
##suke
af
xõ
439
fin
008
christin
586
origin
barbara
werner
foods
kenny
kathy
hawking
gmd
heung
fao
##su
apollo
##928
##times
plei
##ridge
tds
unclos
kienlong
##we
baonghean
beyonce
##ssange
##anviet
newton
hl
##ịu
sana
seungr
indian
##lai
695
ib
##rit
##yl
##ector
cyborg
panmunjo
sobchak
sylvest
duma
sylva
lou
stephane
titanium
636
534
sultan
ver
##ộ
í
kom
sua
##ye
##lit
414
hk
##tay
##ej
inf
##110
besikta
bugatt
ariyana
sunday
anders
arabic
kor
447
mount
##ikea
##ecker
mand
##ibica
##the
##rplay
shen
aspirin
impossi
timberwolve
olivia
curcumin
017
lucky
sticker
crush
almo
##321
showman
abrams
452
bushel
xxx
##tta
416
bui
phờ
thây
hoffen
dvb
ielt
gtx
bailey
nhăm
shock
dam
477
821
cen
jas
spc
quằn
##rough
urus
015
sác
mud
domino
##ris
nor
banks
##res
rice
##yle
rog
tdh
fl
mwc
cqc
glor
darmian
vanuatu
mascara
societ
robbie
trading
reddit
##verev
ttyt
shan
carbohydrate
coast
##chq
kô
ayun
halong
route
lucy
##hiro
2026
##oreal
assist
628
adams
##đl
hoc
##urama
info
866
abraham
phelp
vetc
bqlda
369
sín
785
siemen
pcx
##gts
##lee
##xe
##feed
436
pd
chuck
hhhv
consumer
##inch
chiền
mara
daddy
519
rui
sớ
louise
##outer
kyu
903
##ant
bẹn
linu
ncs
giẫ
johann
##able
amonia
retro
advance
mendy
bvhttdl
rouse
603
stent
maxim
899
793
gtb
##tô
kếch
##mas
vnn
đtv
cbccvc
download
pelican
thalassemia
##lor
379
ir
##corp
bấn
6000
psy
lille
##fner
vinasa
825
lago
ictnew
398
##tor
##uê
##ole
medical
joko
hotlin
yaya
##dium
vfc
617
quơ
age
db
069
##ươi
##rtus
luka
568
tàm
##ala
pot
##ita
##ologne
spirit
gorilla
papara
khayda
pú
##orton
642
vcg
six
381
mooc
##eo
##pr
055
##ợc
lamar
bok
479
pic
lies
##evening
##gone
cme
coinmarketca
donnarum
lightning
motogp
vietsov
modern
fitness
felix
juliet
749
tcd
466
##asia
##dn
wolff
##bourg
fred
##view
fuku
ontario
corolla
griffin
##avatar
dõ
chichar
##ela
bêtô
vọ
476
sand
bitde
malib
401
085
jackma
##epard
##dogan
analog
august
forever
955
434
nino
lx
926
##ocop
##dar
665
cena
622
792
##rey
mcu
641
##yang
development
##sirivadhanabhakd
infiniti
sumitomo
shannon
liberia
shiite
emoji
##wi
alipa
vinacomi
trỗ
wea
tbt
433
vid
guy
##brook
##đến
crop
##ambique
montenegro
paramount
depot
henderson
518
gianluigi
take
súa
bĩ
berry
vl
nur
beck
822
hour
ambrosio
ralph
najib
moghe
888
hmeymim
jacin
diario
##base
mona
quoc
1890
guang
tal
##bol
##endrick
453
carva
agu
canaver
prawi
##ora
snowd
battle
glc
027
##360
##ơng
812
sanatec
jc
808
##pas
harper
insid
cleopatr
orlean
whatsapp
vardy
smartwatch
hermes
741
gallon
shangri
fuso
##mler
896
##pay
boko
atk
ive
462
1926
mat
ttp
1400
##rt
jail
boot
hokkaid
everrich
juncker
aflato
margaret
ironman
##lw
mendes
compac
esp
sui
717
apl
##700
506
pitch
violon
##đã
722
pcm
sđt
875
kyi
russia
##750
605
721
verratt
atlas
hannah
##ky
eaeu
##ộm
096
lử
030
##ltp
message
akihi
##est
konstantin
samde
mas
toro
more
##gs
##fe
##ith
607
##bhat
##ally
potr
##sey
bermud
##932
chrys
##ayga
##ring
##osce
##ws
ktc
joan
sync
fiat
base
ktm
##essie
carb
056
px
xín
simona
649
front
685
crawford
simpson
jerome
thanhnien
andrei
pharaoh
switch
heard
##ys
shakir
moyes
leigh
unit
amia
563
##bike
##bit
ringgi
##homa
##fta
fantastic
pony
536
##uri
ngh
407
map
lev
dick
019
011
##nik
pack
##cic
##là
ktt
nướ
868
morris
cagliari
detox
graffit
claire
##nie
##skaya
##esley
innovation
defender
taiwan
sdđ
fall
421
##nin
##trick
dreamer
haram
1100
##ent
kill
524
kb
##ôm
ipp
tip
431
637
kaliningrad
bvh
mauro
lord
968
milos
andreas
chụ
441
hani
508
959
sec
public
##lina
##osan
kamp
464
551
486
petrovietnam
vneconom
perfect
##oun
##sse
549
nia
polo
luang
##yk
hác
billy
gbp
##cnc
552
industry
nougat
pao
phẩn
718
gro
##ennes
sxd
##wat
rodo
ellen
##fer
artur
human
rit
463
joel
729
foster
methamphetamin
hùn
quẻ
hđh
542
##3310
471
##tour
giron
êba
444
jl
lđn
##ten
052
##mond
suckhoe
patiyo
hitachi
duerde
cacbon
meryl
keys
wolf
446
##ani
##oliu
grabshar
##ato
dwt
501
##ura
006
##ness
ntp
nl
487
industrie
sherlock
bouchard
monreal
altis
santorin
holland
##louse
teddy
rgb
aleksandr
bum
tsn
reed
genesi
luca
sinmu
456
##prom
522
fd
panig
buffalo
warsaw
##ries
654
stefan
##ủ
547
johan
pas
wag
917
##urri
##tron
##ambia
##areg
typhoon
children
##eem
ghana
##rn
bd
kyot
##treep
##qpan
gamma
horn
ních
589
ot
##ros
##har
##rie
viac
925
pepe
hqc
copenhagen
valery
janus
##ư
suga
529
668
naga
madonn
##bao
mate
nhợ
safe
giụ
lost
473
##real
eb
rum
pang
thierry
##akaw
urinboev
aymeri
gustav
blood
shinhan
jasmine
##young
pctp
davie
eduardo
rặn
##istan
##gel
milo
##bị
dimitrov
ernst
westminste
institute
weekly
chloe
deskt
schneider
##keith
néo
koyu
##ible
gali
484
kashmi
nghếc
bab
giô
567
samanth
775
##boe
554
mayer
##akata
##av
046
beethoven
seventeen
thaksin
wsj
##ircon
bcc
752
sook
eng
sue
482
henri
##mer
##ena
491
ef
mikhe
##ú
draxle
##finance
fo
chệ
senegal
558
fabian
##ras
##ở
roussef
kat
##lce
624
cell
##athan
sulli
815
##mont
##có
##ignole
return
##netsov
kiloton
iskander
##ij
winsl
irvin
735
469
pmu
honey
##nder
788
##td
cayman
antonell
##food
bayer
christina
##ân
ping
ce
troy
461
##uchi
629
heavy
426
vintage
jordi
napas
lể
megan
557
bhd
fam
sco
##cin
bnv
pax
##polis
ica
hứ
##hua
716
556
clear
##denver
oseni
nate
##87
##win
##trow
503
strong
cas
khù
pó
##can
681
dhg
##ctc
##if
benchmark
guiller
##ế
keita
economics
sino
##mười
kal
burger
iia
sal
sher
indi
cpc
##dore
keng
acc
513
##ĩ
##tas
##oni
triton
has
ig
gem
mbs
board
pradesh
know
##ữ
0015
##eback
pope
aud
screen
639
hellen
538
rền
##xxx
##monica
kris
##exus
again
472
cbc
rid
ocul
dar
918
cdc
##dor
##òo
hoffman
651
nslđ
kôn
duc
829
mind
093
hyper
player
##ice
591
##vs
kdl
maha
anatoly
564
đtxd
casilla
place
1919
##elen
##thanh
army
tomas
##infast
397
##ive
474
yee
sip
cki
##phone
aquama
bear
##oãn
vanessa
oswald
babis
mik
shades
##ahara
blouse
fresh
have
562
646
heid
alberto
##tara
und
cosplay
palo
lovren
oxytocin
adobe
heritage
spears
building
col
##ado
648
hornet
myung
charge
##kerber
##anne
small
agni
507
shear
769
ctd
lars
##elena
##alcom
emerald
đná
0011
granite
anton
chễ
viettime
meeting
viva
498
wai
bolkiah
christense
koryo
optima
metal
jonas
ucrain
taeyeon
864
hamle
679
##tner
burke
tic
537
##ren
##shin
aec
prad
986
vcf
##latec
##elle
yok
##ọ
lombard
bk
##sconi
bre
035
qlđt
emerson
1912
##berra
peng
##1935
##xia
652
843
##esang
036
975
478
uric
##din
##hai
đk
ngoe
546
toefl
revolution
berlu
platform
dalat
635
trùn
##ortland
court
##ock
asset
9999
##merson
##blue
coat
sulliva
##ase
arms
##mecca
##lyn
##sol
946
arts
##urich
guevar
mississip
beverly
capitol
safety
ambani
hotspur
uob
gogh
ptc
kttv
lyft
##review
history
alexandra
rakhin
cris
jam
performan
bir
805
changi
##mac
acer
schwar
sadd
##ali
##ớc
dash
732
morale
xuề
##yves
655
1922
halle
dha
korean
gmt
uganda
gennad
hulk
adm
quantum
702
##ueta
##oplus
895
thiem
038
roja
673
ecopar
##poro
667
##tus
creator
riedl
kentuck
781
gothi
okla
mitch
wha
##afe
pả
shot
pf
579
##los
hế
726
985
rogers
##ỷ
graechen
selangor
kansa
ismail
bishop
pra
cmt
qsd
phunu
mx
normand
gts
526
môt
779
##mura
ktx
ruy
nhoà
phia
tank
##shan
##spc
886
timberlake
welcome
ramadan
calvin
323
aa
act
905
forum
##iem
boys
634
farg
pool
493
brin
##chan
569
dw
492
cun
727
fraser
fifty
thoong
xlvphc
bowl
sandal
##ía
huda
chad
case
fly
roa
novo
berkel
rudi
markets
##ach
##sele
stripe
tlcc
##head
bolivar
ostap
luhan
our
sequin
transit
easy
##ellini
##ỗ
pascal
suu
602
exchange
founder
##arius
silic
##awson
come
##ngfu
##fire
##rk
mán
##fr
##pan
561
vượn
758
##ễu
bologna
gwyneth
intelligence
đhsp
summer
cheona
sayya
alo
pace
##mich
sõ
##leeds
##ting
alien
xp
nhử
pia
##nis
gbu
##lus
##kaku
kay
532
##ega
img
sumo
##war
##oxide
adventure
##lam
bremen
crôm
amcham
ishigu
##egovina
7000
thanglong
amc
494
jek
investments
##red
ddc
xtan
##row
koch
choán
mann
099
md
##backup
##kw
##oot
sting
##gdđ
##rwa
wild
566
##ibia
ole
siem
##nstein
wbc
##uoai
sotheby
tashkent
kilomet
butler
sctv
wray
sunshin
949
mor
vphc
mọn
ptnn
##attah
daeg
632
053
bnn
ôli
saison
##rập
##ards
vico
ncl
##ati
hal
ald
##rystal
##eng
target
rolex
gerasim
stallon
wer
vẹ
tourist
diếp
record
523
##off
756
##jak
##lyak
paypa
hckt
571
khabib
middlesb
ravshan
empire
rpg
xinhua
##pool
##irming
2040
##pratt
icao
levin
##lar
pren
bic
611
vac
change
gri
mahathi
cold
##800
##waco
arun
homs
##aga
engineerin
##aisy
514
##lacca
hut
2500
rằn
add
##china
##school
##mouth
notebook
915
##bang
prix
jupp
##jin
goret
##acy
bru
mls
sám
##sping
##pset
##ful
##style
mundi
##oma
sit
tồ
539
cavusoglu
elysee
544
million
dimon
vtf
ling
oleg
kwo
##ial
quẫ
##chia
sgd
watt
wc
##appa
##istar
##rasia
##rones
cox
##ines
##98
062
##xay
##las
stephani
bòn
want
##opd
joachim
huate
valdes
##pilic
rosari
jimmi
##od
619
shef
dier
068
ava
##odka
paddingto
023
##hem
charlottesvil
##công
wear
##val
##ôcô
cascade
##cam
adriana
expedi
##arane
sok
maverick
kseni
##dal
778
857
etc
pit
##lp
taka
467
kennet
885
581
auck
865
707
nene
shery
trip
father
818
##mhg
memor
aps
##tth
deadpoo
murdoch
phomvihan
1924
627
matteo
dominica
##gola
##kd
cute
##nel
rojo
##yugi
521
cesar
##tri
jonn
nớ
##ỉ
hunt
##hee
arc
##dp
pose
berdyc
nakamoto
gandhi
polyester
shakespeare
bosch
unai
edgar
jade
build
##ray
661
civil
dig
ghim
bernard
839
1914
clc
ngoá
salvator
muno
##ator
dancesport
order
yango
##kee
ila
rise
##ance
##berry
751
raw
bnnptn
922
882
##aobao
618
seok
turf
fs
##enbook
##uyên
merseyside
nicaragua
madagasca
upload
about
eurowindow
pắk
037
ocha
culture
kamal
connor
basa
##ono
wy
678
yoshi
vanh
##utin
corsa
leonid
768
tale
##iri
meo
coop
483
097
##ade
memphis
sidorov
antifan
spence
runway
imagine
reese
production
nicol
neill
582
tiển
philipp
johns
pinteres
kaki
541
##rinh
621
##adi
part
isu
614
ifeng
##akharova
manager
##ida
##ted
vsmt
chinhphu
##yce
nb
stuar
##space
609
bủn
lei
##gal
##liver
##ain
rajev
##ghe
##ser
912
##lđ
fish
##lk
cortiso
swanepoel
monsoo
oas
rebel
mcconnel
593
hwi
scarlett
organ
762
todd
cf
pap
pagani
pò
gyu
kook
napa
583
mangan
075
wip
ois
tms
nhũn
1910
dex
##hvn
cabello
schiller
serotonin
sisoulit
##iston
chũ
por
##wei
freeland
tusk
baking
polyp
##rold
656
##ern
##nmec
##niak
##1908
diane
##ota
saxophon
##rague
##roy
keylo
981
thailand
##sun
##cđ
##hiểm
##ctt
965
bron
pong
754
##ugh
cortana
llorent
goethe
signal
##111
706
##94
sas
trek
kttt
658
704
marque
##mesco
##didier
irg
095
sohu
spotif
##inski
nara
065
728
týp
##fo
##gue
817
696
posco
moro
cnv
##iq
ott
barclay
economist
hiphop
edinburgh
vanity
##ile
##oral
sunmi
##celine
ost
avalo
macri
schwart
612
##ử
##oah
usg
chro
foreign
paper
meyer
916
##tis
weigan
914
mustafi
terminator
lugansk
profile
skinny
armani
osama
robinson
tripoli
391
bout
kc
##nckh
kovac
869
mentor
lux
score
oak
783
soc
795
682
damon
stras
khem
patrici
836
portrait
thongloun
faroe
fowler
why
macken
catx
apt
##eiko
cuô
828
086
level
##ssa
gí
geno
hoo
##eb
##online
phapluatne
ger
826
trằn
##isa
##doria
noa
jacque
746
priebus
đsđt
rotterd
major
spiel
edison
##sdlđ
hull
glive
guilla
ether
sơmi
canyon
##som
sloga
jar
##mel
cream
##oe
pape
kol
batist
##edith
most
sena
##eck
val
brook
gạn
##lgđ
709
##mix
##coin
##damov
cinema
scop
##ơn
##br
989
708
evncp
0014
boon
##lby
ville
firm
##dd
lucian
879
676
fr
844
michelin
481
chuxi
608
##bay
biê
##rina
js
llc
##amela
mccarthy
548
pti
beath
dancer
tsb
809
cis
kohl
##ỹ
##tro
gmp
xuê
pga
##ganov
bâ
fei
nole
sloan
517
worki
##lab
ngoc
045
##cast
##lê
faga
063
ccd
838
997
669
doctor
cano
penthouse
visual
offroad
##gadget
neowi
yokosu
private
##een
giaoduc
kam
1923
blum
##ebol
849
timoth
##evich
froom
gregor
crypto
tcl
saud
ora
813
##tha
##ich
dion
##omics
cop
##nix
forte
nộn
economic
wahl
csdl
faptv
mohamad
spieth
tennessee
##voucher
salling
marouan
509
giuse
supe
langbian
cnxh
##rley
##104
job
##ista
vd
endo
yeo
##ndesk
nghễ
thayer
##dale
bath
ante
lion
pcc
labs
##matic
pari
connecticut
steroid
sherman
tell
btttt
##ncorp
calorie
##reuters
##turan
vof
niger
##ịa
pad
##ets
guo
##ckd
hdm
gami
pom
##burn
paig
##haus
pure
##len
alto
1911
tornado
mansour
rockefelle
champag
jvc
##hin
686
hamburger
borisov
edwards
496
043
bos
##ix
lét
##edes
598
drake
##ele
##amin
013
##chen
chạn
##412
mak
mcgowan
novartis
micheal
eyes
lampard
tuoitre
##bee
##qui
font
carnegi
toạc
booking
milike
phillipine
##omo
##iaea
síp
rogue
uý
udine
##xã
lé
robotic
616
##comex
848
qld
image
danko
grigor
bored
##ooker
nak
592
##gio
afif
francesc
816
##iwon
mediate
sta
noh
mika
ajinomoto
heaven
menswear
moldov
snyder
stnmt
qlđb
filan
wake
huds
jennie
vnpost
##nford
##nick
vờn
petya
##aw
picass
station
amman
939
baca
rưở
##uyệt
511
##eau
##ft
cra
898
rapp
009
031
##teen
659
animoji
gibson
darkest
vicky
mundo
simone
taqi
pttm
638
masia
##onic
##arney
701
##npr
eve
nhít
##esports
monitor
##ôn
stefano
##rak
officete
##ạm
prô
694
clara
##ima
606
herpes
saffron
##pin
barnes
##sandra
gabba
liban
đttp
ipa
fmc
gramo
tocom
friend
##uộm
##lake
chosun
styles
574
633
##vr
##irul
vón
mask
731
poké
##8394
449
drinkwat
##ller
liechtenstei
monarch
hummel
leopard
serum
challenger
ttu
1902
hiê
1600
vitas
race
748
meg
xè
đtvt
ff
##anu
757
cher
014
turn
2100
quebe
##nikov
qsm
##jero
lâ
blaugra
clutch
nostradamus
poseidon
971
metropolitan
xamrobekov
creative
fv
##basco
##ttawa
cbnv
##ì
##raith
##bus
lak
peace
kristin
vafi
franc
862
yao
##oo
##udi
##hol
youth
966
peso
##mdb
824
##iano
##gin
##dep
##ism
trum
##esh
kyrgy
redmond
javelin
lancer
dá
##oto
brandon
889
aun
tisco
kaf
693
872
clean
597
##ebe
metoo
##list
fiesta
mayon
diplomat
polymer
blđtbx
token
pellegrin
##vit
##elo
021
945
lighth
##dv
dome
doug
##tre
pou
##vina
##dee
maxi
mahal
kab
sprint
bida
##master
842
chinese
##được
princeton
abadi
fiji
##septic
johannes
##band
##suckhoe
dạc
panel
982
maybac
048
##fic
pral
reporter
##water
664
tuan
grad
ata
767
cerato
imessage
réhahn
stolt
croton
hambantota
carniv
683
##ovind
harar
803
##quận
kosach
##scc
996
slow
##ric
858
tuk
##oria
hamad
pinky
daley
naf
##craft
##ree
vla
##logger
091
eq
##umble
pvfc
vds
holt
seme
##ễnh
833
bor
beyonc
##jan
fibro
exxon
##urbek
dac
mora
muse
##umo
##ttf
##148
hell
bện
bmt
vera
antv
josep
neu
dis
##acker
bora
##atin
islam
bư
harde
bold
##gne
shim
xra
##ther
salt
philippine
gorbachev
thunderbolt
generation
histamin
missosolog
hydrogen
sahel
computer
creation
rolling
bennett
hf
##eri
##hd
766
bro
riu
malik
voc
ldl
domin
developer
##obber
nyme
alfa
##mobile
gis
##inac
759
coo
vital
832
837
497
##bal
truong
flickr
979
##venpick
balenciaga
jumpsuit
sanofi
goblin
kiot
dilma
lupu
inn
##share
tth
744
frances
976
cesc
xoe
raider
mck
mateo
president
samba
phillips
tuc
531
##dntm
##all
##cat
trui
views
guard
hook
978
##wf
staffa
barron
pastore
shimbu
##shop
764
scarb
xoạc
##abad
berlinetta
##elny
bounn
761
##atiga
cards
delph
mash
919
fai
bild
tdp
643
##vision
##rc
##anley
##euer
##lac
##101
##tle
877
heli
073
ramire
##570
violet
probiotic
rhodes
ibf
vư
rosnef
##õ
suite
vpc
719
##ehr
##orban
##dikov
871
aj
guu
bransta
##hukov
##hoe
mick
thừ
713
698
##nô
xuan
##gtvt
572
##therspoon
wolfsburg
sevastopol
ifrs
##wight
isp
chromebook
indev
##owling
cnht
##ario
kosci
veam
ldp
022
784
##case
##aid
##med
huý
pull
đv
##aud
keyon
abdula
xum
helio
vinaca
##olker
bou
granit
socrates
yersin
vbf
763
supranationa
pdf
ul
hkd
##video
##oid
ihs
953
amata
strip
stat
phuc
boer
##dev
703
aqua
pany
677
beau
776
angelo
663
##lletti
mckin
##press
##serati
nagasaki
gerber
pretty
thomson
alnic
mister
##yourself
carlton
manpad
usain
859
##avico
child
taj
##lle
wpa
##ins
mccart
##ose
hotels
##qc
fcc
bengal
sto
863
scr
##sing
079
singer
bal
thani
moe
cod
cla
ser
tto
mấn
049
##rrey
##liance
cambodia
samurai
navigos
gattus
lonely
shilla
spyder
endorphin
reading
secure
##neo
991
policy
pete
ami
glo
##nee
##rĩ
##hara
mayo
feng
mttqv
##iger
##are
##ust
##yol
##auger
clinic
##mori
##afp
##kđs
##ksor
cohe
paint
928
801
kbi
##fs
hori
bern
##guire
742
monde
yellow
pliskov
suisse
verma
elegan
##orn
##depth
gtc
randy
##giờ
pí
724
africa
hak
rế
nestle
itc
##pha
807
micke
647
hanw
vote
pờ
##xl
##tl
##atee
937
hhc
fog
806
lara
fps
##cki
pte
reap
stein
abd
roboco
nath
symphon
elliot
airpods
##crunch
##ilbo
921
romance
xò
jacket
##app
capo
##ccd
##ples
##vier
hyperlo
haha
##enny
golo
984
mobil
##ĩa
claudi
##ayn
##cock
##elina
##lum
montpellie
reynold
panamer
laguna
webcam
##rpm
morrison
098
jens
##è
596
bogor
shield
936
##ama
idg
##mki
##eforce
heath
leader
##wobi
qc
đị
sf
697
guide
##tqđ
wish
sejo
medi
##ory
##fecon
786
##urier
lyric
##kim
spartak
##ladimir
##rcep
852
1001
peninsula
philharmonic
predator
gilbert
josé
alejandr
cornell
lvm
vivian
seapro
str
beautiful
962
##echny
ww
christ
##direct
operation
##tti
##shev
948
vga
helm
##dl
nyt
porter
573
shing
tik
tcm
hein
##arra
foot
##run
##tatum
sgh
popular
apatit
damian
hkqt
cgc
monsant
lum
pattay
inside
bkhđ
buy
##bound
##rou
bẽn
cry
chave
heng
##mobi
crom
blu
##kwang
bđg
##reva
##ensis
969
chips
hair
613
osborn
nile
##antar
##pharm
beatbox
pgd
957
shawn
##pur
pbo
agri
ekaterin
gibralta
natural
komodo
leningrad
pixar
##aba
##ertens
braun
allian
were
##ự
cùa
engine
shisha
gla
##putra
seol
ur
cti
##ense
##ayman
##ares
952
gross
##mlm
847
kym
##uta
carol
092
electro
als
lju
tẻh
mariana
bettencourt
flavonoid
primmy
holiday
consult
luỹ
834
nvh
tos
##ncio
mpv
aeroflo
lennon
cassin
btp
##các
steal
##una
##mit
nhon
broker
987
fn
##web
##dvt
sho
thibau
xs
##lis
enter
##rah
8000
sep
##lđnn
líp
rush
account
mitchell
sassu
uscent
ftse
1901
device
uniq
tedi
##kepler
branch
##allana
tott
pán
##ạ
deal
##ctomin
733
##hia
##ome
hiro
##kawa
##worth
prada
047
##ác
cos
lade
xốn
smc
marx
##die
upto
voa
trườn
942
takashi
##hmeimi
##boo
nescaf
##kowski
##yhct
##sv
nishi
monora
##quang
but
sarin
ssc
##ashore
##anto
##shaw
paco
raymond
##ates
itu
##for
932
##hur
##109
cure
petra
##eiro
dram
##bon
fra
##oud
wojci
browser
darwin
##ả
rowling
vpa
##vis
seon
stark
##sie
tien
klein
##king
gui
mpc
##fps
##oku
plutoni
vđ
##kova
1905
msi
apps
##rnier
hpe
##ben
##uhur
867
ssg
##nal
972
977
deulofeu
melissa
vampir
ruble
bina
antoni
657
bafta
viking
##attila
631
berja
##anna
alexey
parod
094
sel
##quan
allah
tiê
rosie
vert
find
march
##pita
##bra
lines
034
##evy
##tino
tombo
##qua
sicil
gle
marion
isabell
chatbot
generic
yaris
yue
##ollah
sabah
tăc
##bos
expert
##sel
##chelet
##fusion
##ture
aci
ngỗ
chester
dji
wing
##dh
pyn
714
spi
ket
bkhcn
ryabkov
swaraj
tajikistan
tolsto
acura
monero
lynch
kolas
##743
dione
029
esteba
german
its
cq
941
689
balar
##nil
felip
dodge
##ucoin
1909
##pko
ttk
##yre
hara
dello
##umi
xố
##ves
712
##body
ubd
nả
##yon
yathot
arleigh
linkedi
wilbur
burton
chamber
naver
vocal
##dia
jbs
kuni
##itude
eto
##rry
##finha
comic
ux
083
##hiếc
track
998
##pink
gif
##takia
##kayla
bak
qk
htm
mcg
anastasia
liang
kyrgi
lycopen
beiru
willem
trojan
trevor
fsc
##telli
fer
wonsan
782
nutri
toe
##sley
húi
lọn
gork
088
pmi
fun
cushi
barbu
933
điê
##arus
##ven
##odera
066
##verse
811
078
##mei
##wich
raja
levi
nand
##ăn
ddr
riber
jacobs
carotene
##ôi
alcac
đú
671
miliga
melon
vns
089
rumani
794
##nfram
##ricky
##ello
nfc
684
toshi
squad
ams
##113
hss
##medov
##tsc
wander
huckabee
orchestra
072
caucas
queensland
whole
protect
##jico
hunts
##abaco
vgc
##rory
freibur
boca
ste
##seed
pồ
fata
michele
##wb
##amene
digiworl
##rec
##fl
kona
tdc
amir
gulf
nel
seki
wheel
956
omo
##kesh
suicide
sharon
elmich
mirage
sonata
##gos
analytic
tourism
mbk
avg
adrien
darius
gex
emilia
908
folat
investor
##byl
lex
##vard
lilian
##equie
chõ
dock
nana
077
quad
##vor
##nning
mul
maine
frederic
##eur
796
##arenk
901
##nicks
hira
dinar
rama
copp
##hlins
ttvh
deloitt
legging
nebrask
nugget
centimet
##yna
metropol
aws
jiang
##lly
fhs
846
##nca
oxi
##roccu
fitch
##latter
corv
##anest
##rsx
##lock
reg
##hir
##ài
##enburg
fallo
klim
897
dd
hla
653
macro
##ás
mill
thom
feyenoor
gangneun
knox
##thu
shtp
rd
qlhc
saab
stand
##sid
bacca
golan
banner
casey
kcal
##eland
##wal
teu
814
##costa
yoko
ol
duk
##2049
##und
kruge
bf
akram
pirate
mats
033
061
gtn
timo
878
ndc
##aquos
904
insight
collection
amelia
pclb
mag
military
dakar
hoodie
pah
spice
access
bertran
lúi
##logen
##ès
##dam
##bird
##upert
era
davin
slide
cec
kawa
##exid
blố
karolin
pvt
aqi
annie
##íp
saka
##ukic
##dorf
hđđ
##sant
poh
##urus
đư
skin
076
##met
##taba
neutron
pkđk
yeah
albion
jelena
eos
##sang
insights
sakura
hkt
ike
nim
charli
đụn
neon
inverte
944
##ỏ
854
058
##ash
##blin
toto
##tes
##pra
bavaria
##jar
##yrie
##bilis
##bp
teh
program
##aco
cloramin
gemadep
mcqueen
moranbong
pharmaceutical
audrey
pepper
husky
andré
##tive
stranger
communications
##tista
layer
##nini
benite
902
##evento
nml
##gl
ppi
674
##ubeda
##var
wide
cardi
039
rada
##bone
##nk
keun
crai
827
erica
keep
##ín
##ubeo
commercial
juergen
bhtg
nikon
palmier
faye
1904
ksb
ite
##inger
guan
##ohr
874
736
1300
hap
##storm
791
finn
##ae
booth
boate
obla
##shed
kata
glen
mitsui
##vpl
##650
fro
imperia
067
deca
mằn
##omura
##iên
hei
kiss
tvc
eternal
kalashnikov
lloyd
sandwich
kyaw
passport
andaman
montana
##larsen
robbin
##lka
##icij
687
medin
dalia
friends
bulls
michal
dame
brasil
594
711
giự
hocke
nets
##iata
mva
đẫn
crisp
##eye
rupiah
jacqueline
milner
##dad
lpb
europe
allard
billiard
##nst
##rocco
##rner
dea
ota
##pass
##enegg
arti
fab
anct
771
wwd
##yagi
##oul
##tree
cory
692
##ndon
##aux
hdd
phệ
943
##ecaf
pattin
931
margo
vao
hartle
##uddin
caen
nat
advisor
defence
anadolu
birth
##misoa
ptsc
reid
kuin
##oksur
jen
064
pika
##yong
##pman
##hub
##ỉu
bil
oo
##không
797
fx
##gvar
##odc
##dcb
danis
##mangala
clay
##drive
khạc
##illard
yeri
scud
##usta
##iel
yildir
##derlech
eleano
handmaid
honolu
oslo
admin
##mhs
##non
##polev
eisen
051
imc
cpđt
yuan
ishi
##hon
bios
##tana
kute
champa
xan
##nny
##xd
##hoa
##annou
071
insta
##okpo
##dra
906
flower
##dx
1802
xhtd
gre
chievo
##novan
regent
text
##qdnd
734
##dinh
scm
ou
quớ
giorgio
xps
##express
ey
bog
gur
hue
pyong
##wu
bod
973
##rissa
##pen
asp
gàn
hpl
##sov
door
##today
##jun
##dung
##hq
shaba
dến
##acin
804
##sho
##ese
rịn
rỏ
thăn
bollywood
escobar
vbqppl
curtis
joaqui
ganiev
wesley
minivan
hhb
dnb
lynk
##end
adi
nasser
##streaming
##lay
plastic
transfermark
##1918
jian
pdr
##uni
venture
##ical
##rô
##chev
##cđt
burn
1913
954
##430
terra
ruben
ctn
074
maybank
smb
772
856
##tter
##cal
##ise
lucia
##240
lagarde
acrylic
yellowstone
raphael
outfit
wigan
958
brenda
medicine
sw
awd
picha
##abe
elisa
vas
##moi
maidan
##reilly
##ardo
tchc
cello
##ste
##set
marino
##idis
btn
##ươm
##pura
##agli
##illo
baja
##sto
924
away
hide
candy
967
##oise
##ohn
idris
##89
082
billionaire
essential
gudmunds
handico
convert
sharma
cancer
rand
svito
##arour
article
##hardy
##mus
ronda
puma
swat
738
##home
##ote
svr
994
saif
##chuk
fpts
fest
##bs
edmund
##dos
773
##spor
nec
##vclđ
kul
nnt
9000
##tain
##riana
hum
association
bluechip
alicia
chittic
esop
his
##sea
harvest
joint
xộ
cct
ready
jann
penn
##board
thorn
staple
phuong
ghani
##uga
##goda
pfi
npt
sanaa
yeol
nhấ
kova
##iness
storm
##uv
hdl
eg
luna
rái
##akov
##ssette
cee
herm
913
##luan
032
dyche
quochoi
signature
srimak
eldani
youssouf
selva
vpđkđ
velar
olga
suwon
klaus
##ndu
##als
##ayfull
##esco
bmc
ikon
059
shevchen
itp
##guchi
tata
kama
mito
bis
ivana
cage
mie
dress
##rang
nishik
gael
philipine
pavilion
buckingham
muscat
priscil
cousin
gq
bernardes
##cheon
harmony
##ddleston
konta
when
payne
ceball
root
khựng
bnp
##bury
qx
tex
##otti
##soft
jsc
lave
adela
##atip
hem
btr
##room
851
##stock
819
##hanks
##nah
##eva
reinc
marsh
##ntendo
##dautu
##juri
pico
arkansa
petroleum
whitehat
botox
koeman
volley
kesha
draho
##iom
holly
preview
vnisa
##rman
##với
dmc
nakhon
scanner
ronan
password
resources
##ồn
hoác
uef
alone
burj
og
##bility
hb
##uyu
ngồn
ruth
sma
##180
too
##ook
gmo
##sl
ddg
here
puth
##sme
##del
ngườ
peer
mos
burki
423
onc
##ming
##măng
##trip
gừ
praba
tmc
##unes
##patty
##wick
961
beyond
rodrígue
kieran
teresa
reply
plug
##won
##raya
roh
vkstc
##ẳm
##wp
##tamol
##ullah
##gdcd
041
nine
##ât
mimosa
##anov
##xcơ
##vpb
baba
whisk
##bridge
##120
cherno
ttv
moan
weis
vani
##mall
gcc
##ulin
flashmo
ast
##iko
misa
##arat
kuma
kos
đĩ
axel
883
product
##oli
988
##ket
044
trax
collomb
formaldehyd
##putation
presto
sonade
khmeimi
##trung
##fast
wada
cqcs
command
##allison
andrej
wick
##imi
##450
vive
lut
##ides
pon
kyun
poli
##ais
##ilal
powerpoin
boom
xoàn
##ferrari
faso
fields
tfs
paula
rủn
juno
887
works
##neville
middle
nox
nurmago
aleksey
melanie
mevlu
together
fons
airport
value
jayki
##athip
grenad
##hui
gods
##raghi
downe
content
993
##bt
##iff
carrie
beli
grap
##rox
berger
raid
##gers
##rum
##ù
oxit
fri
##lic
kk
nsc
trekk
##card
aldo
057
1700
mcil
vos
lớ
##albu
##efron
ella
1915
bombardie
mercury
bungalow
rossoner
communit
yankee
european
##ưỡng
xlnt
samoa
tow
wed
immobil
toby
mae
dominican
cheol
amoni
dreams
correa
miko
viola
pis
##aplin
wp
etienn
mrt
##ramco
ktttx
##aq
peta
##nguyen
files
jiu
hood
##della
##rid
lever
amtra
norman
second
highland
##lứ
##bucks
084
##dic
##dis
rivald
lancaster
sumatra
hercule
boeung
tax
##ursen
kubi
##ckqt
##bas
broad
badge
##deon
seul
##cst
##lie
sonar
mq
964
noor
##amamoo
selen
ola
841
##shot
some
pullma
alpin
##kai
milano
pvx
##kor
##lane
##boue
goodi
nasr
khứa
##trans
gw
vinnik
local
crouch
mercos
shilo
mihail
##tho
portman
telegram
wallace
##ifa
##rnum
##nidad
cba
##akira
prin
sul
##eth
odil
##ping
suri
champion
##áp
##bis
natash
ceres
ural
##low
raj
##pf
yim
tich
##via
put
891
pulis
schult
quart
##dc
873
kissinge
##mina
##ehati
stori
task
kati
phon
##meda
brisbane
windsor
midnight
idaho
bundes
gwada
##rassic
##nafort
rondo
tribun
meng
mile
##md
##ending
acx
tmdv
dorna
892
bscki
valy
##arek
poc
bakr
martina
kpm
##insider
sek
##guard
##rol
##wyn
pam
##amide
maru
##mania
jill
drog
vfa
gerr
##tal
ibi
##uana
push
##deid
gianni
glenn
bondare
spy
nav
strange
963
kick
##nders
ribeiro
sardinia
vulcan
aviation
luther
frontier
temple
shakht
##ltt
flying
##fin
##ference
republic
ups
##viết
cùn
div
kf
##ence
##kk
##eit
vpđ
stk
##stra
bet
mote
sharif
puli
##kr
##minh
aly
cate
##hallow
donna
##ikko
cars
sq
rapid
vega
##utko
rus
octan
vlad
##gnon
##uj
##qd
schu
##erg
background
flappy
niagara
object
steppenwo
pristin
shelby
aerobic
holloway
sceni
solomon
##leader
traffic
celer
solutions
##alais
manu
##see
gyeongj
##fid
##ovato
dijon
dear
ridge
##eonov
touring
rahman
##rbatov
tsv
##rtwo
udic
##timex
##chang
##dang
ssn
đrắ
ryong
sales
sừ
ala
907
xán
##raj
##vu
res
gx
##dock
tomb
cincinnat
doraemon
galatasaray
carvalh
coqueli
variet
ivanov
dss
toong
markit
##ldu
crew
mathie
wr
cantona
##tht
swing
##inex
lf
disco
bugi
đâ
##hower
mello
##ạy
donal
##esa
masterc
##stain
##sington
pate
vista
##erson
triê
##eter
##bor
milwa
mek
##theon
##els
hampsh
##kun
aus
khom
##arby
esse
##xit
boe
sis
##say
fourfou
fujitsu
##auer
##fax
simmon
santafe
##tổ
qnk
cip
##vender
custom
##bago
##aled
774
lime
##rong
947
vbs
chriss
##monitor
iea
trends
gor
909
##tam
akee
##sic
##ă
ned
##blackpink
brain
priv
mod
spur
##avara
alexandri
##rus
##dma
drag
##joker
ie
nghì
disc
uran
##mv
##feld
##2000
beijing
ossetia
gateway
pegg
madagu
adolf
manor
##reek
##amo
svf
brock
ddos
thoan
087
hvncl
oriental
aes
ure
##atsun
##vpt
jho
opal
rudd
cvn
loki
##arthur
chf
##hos
arch
haven
mvp
##over
oversi
##slr
cro
##site
927
739
##sf
suns
gyon
##đa
ksv
lynn
753
glas
ads
894
##acxin
884
hỏn
talki
##cell
##khi
griffith
savannakh
vinaxuki
daesung
scudetto
borneo
##ecision
691
snack
##mmar
##uncan
frame
ariel
reeve
##ụk
crow
papi
##hall
853
##fish
gibb
row
##kos
tdt
##iyah
##eli
##hum
dep
lóp
wil
coppa
bow
##pd
##ore
atc
coach
poo
##top
##abi
yes
##lte
rubin
##vl
lite
ud
date
caligula
corbyn
experience
hyppone
infinite
language
tripadviso
murder
thread
cabrio
bunker
ktqp
spike
rudy
suntor
##002643
gaull
speak
##103
##yuk
##bola
gosl
##ettel
##efoe
026
trờ
nations
pega
##ekir
##ilight
##green
##farm
##fil
sev
##bell
##hay
sven
##sia
##leen
arf
esport
shun
##csc
chămpa
kirin
đễ
##bur
nit
luta
yoshihi
imex
tron
fux
mứ
929
better
hừ
##lies
##bsk
##eno
said
musa
wes
tf
##nova
cyanua
hackathon
brooking
cavill
##led
##wo
dkr
cika
##owski
ă
sparta
##eto
alberta
##kps
##wang
sundar
##aby
##550
born
##asew
##ille
##ơi
##etic
951
kdh
shiva
##eira
wealth
##rate
##erek
xia
bbl
##tronic
devi
sandy
##sfarm
aba
vnre
mot
mes
##des
vùn
##horst
hawkin
tucs
fre
tuốc
sugar
esho
##insy
olymp
pageant
feltman
strava
kaeson
depay
eurasia
wynn
associates
bore
champasa
##asso
springs
##ete
fen
hooc
##108
##kguks
##hanoi
##mf
nvb
##cher
##itric
##idden
ker
##ocic
holm
samir
##sdf
wid
vlog
##uho
##omori
##otp
##achi
throne
tee
niels
pca
nash
##strom
xhh
orient
nainggolan
pandora
hêrô
fipro
cskv
##ons
margan
876
blanch
mallor
téc
botnet
##agan
##osted
kod
kana
lossl
sia
1882
limit
weiss
vietq
sonia
##arm
##ulu
##park
##drian
##907
##arrow
##rmier
hbs
wongsuw
##avie
##mx
##acea
loew
step
kas
##mol
##ual
##fan
pub
934
adrenalin
french
wolverine
wyomi
tomorrow
fleg
##ebble
direction
eugeni
iucn
nsna
bernd
hyatt
melanin
ying
##888
atom
thưở
##flox
organi
seed
fedor
##ưới
##chart
##moo
maddo
weber
##etno
##lov
##oda
ada
foody
syt
caosu
devil
##ral
##ón
secc
##ipline
martins
kwan
##leo
rub
sền
831
tâ
roth
##exter
dtt
##abikhil
caballero
chemroad
construction
vathanaka
degener
paraqua
holyfield
kitchen
bauxit
vietship
sihub
peterburg
sonoma
rouge
##người
##vel
elba
jait
progesterone
mechanic
version
##elka
hel
##edo
giles
##yj
##data
mica
##pierce
saga
tlc
â
aol
1865
##js
tiin
##sangyo
palmer
##science
common
ubermoto
##horn
##948
##dag
merry
sacom
stra
mala
vẳn
ptdt
fortuna
##ablet
casu
upi
##ò
ee
vor
soyu
deluxe
harpoon
polyphenol
sacrament
wijna
accent
rhone
playoff
cttc
##xtrây
barnab
kri
##accp
denil
nhễ
where
##lass
sig
##aria
mili
joanna
kirku
##orkel
palau
ucl
duda
0016
bonn
kring
aki
arje
jie
2107
prav
tyra
##thai
medic
ptt
##arco
##tham
##isman
bebe
chẹn
piero
##ebo
##uang
##travel
##garo
##rian
861
##rant
tse
##dou
##gas
##aplet
##woo
binal
franken
before
lufthansa
property
vorachit
xyanua
remote
covenant
vietstar
kayson
sarko
##poel
calmett
gelatin
##smes
harish
interfa
##atov
pyd
paste
cea
msx
mice
oxali
##etto
##lores
ports
silvio
1288
nitrat
ahra
##ute
fur
tlđ
lumi
##talk
nicola
##mic
##ick
yel
##reen
moran
critic
renat
philips
mcint
974
##nov
##evic
2028
##129
eth
huntingt
bitmain
chainsmoker
goffin
infographic
gagarin
tcđb
versaille
walsh
winklevoss
haji
qhkt
boring
##tween
salma
btob
kurod
1898
##kho
##bev
##kat
triglyceride
papa
hanna
fara
nẫ
##mva
##fw
##ẻn
##ogy
##owit
yuki
manning
jayw
##lines
kiatis
dewe
##mex
rally
biel
##ublin
fujita
##htn
leaf
é
##ão
##việt
gằn
##qh
##qa
khú
##naya
nhón
dmitri
##icon
##310
berna
anova
bud
##mun
savan
crof
awaken
steinmeier
fandom
bhumi
soleil
donaco
evra
espace
mohd
hollyho
johor
wonders
reaper
matter
##etti
kampong
tours
seth
harman
jb
##amiens
ob
gallu
ebd
handanovi
##wc
faa
lind
ves
steam
##610
vitic
lea
##ury
##anich
##hcr
apert
##mk
##enco
##ail
kob
##wire
pole
eliteboo
cus
polic
##wear
##ayne
flag
##porn
##uidi
jude
##sd
lac
pamel
vể
##365
hou
##edu
adel
givenchy
morawieck
clorid
delfin
auror
dopamine
csđttp
russo
1858
aguil
steps
sherida
parson
worlds
glute
trapp
claus
santi
strike
alert
##vist
concerto
edou
sock
mass
##ichi
chopin
##ify
##utland
##store
fah
into
drai
##rik
##nouvo
shinj
jing
xạc
##math
illustrate
##ertha
blanc
##uli
##insky
need
râ
properties
veyron
loubo
reset
split
hoover
trippie
vinici
ruộm
tpl
tâp
##cb
##ogi
caravan
##ill
aya
saw
doll
hearn
##itness
vary
wow
##umba
##qtv
thorne
##heng
rướn
lights
dớn
flip
1880
##irse
kirk
##886
help
##lib
##dio
silicone
yak
lến
##fone
##dance
##osco
##wain
##damel
aw
##bel
cur
shayk
krasnodar
sigurd
tcđlcl
protection
ramses
alcantar
belgrad
excellen
penã
kahn
hol
wedding
attack
rep
gwon
##qp
##bert
##gren
##hny
xìn
aoki
trogneu
##rift
fom
ale
thuôn
cruy
counter
vthkc
##jah
##lava
##vnđ
##adkar
081
shre
lit
đừ
castle
teng
##sak
lange
##cpxd
vđt
##vers
ragla
jano
vpi
habib
extra
tecco
##nen
delevingne
guantanam
rwanda
support
worraw
jefferson
bacill
ntls
dinner
schwab
##năm
indo
##eron
roc
dec
cts
phôm
##xq
honor
##ales
ctx
ledger
##steiner
##lenko
malay
##born
##itue
##cil
cloon
eydi
##hal
mur
deon
fine
##okes
exe
kee
moussa
fate
flora
##bk
acs
##hana
yul
pheu
arna
lag
0012
##ubin
tian
gato
đttc
scho
mira
##sao
purpose
swarovsk
gardner
sensor
squat
fuchs
##iga
issac
đkx
##â
tara
##pride
shige
drew
pew
1060
nickel
gavi
parc
##oan
georgetow
laodong
##amine
aux
fujimo
midi
cny
csi
vasily
cuper
sato
agm
htd
mns
##fpa
##ght
herman
##steel
navarr
boat
pato
cali
rón
ax
living
##uiyan
erin
##ord
kva
##uti
columbu
##lun
nss
##elin
##jima
disaster
schmeiche
sarmat
songs
atlat
aspire
chrysti
voyager
##assen
pjani
processor
esele
turbine
giovanni
maurit
##iser
heming
viral
xbox
##lik
##cus
##ondele
##hwa
##cf
ktv
brett
##mail
cskt
##yeong
sti
##fale
fil
##stream
pisa
##nelli
sihanouk
##nok
ifa
truyên
##hit
tun
##nnie
##chxd
coong
arn
##ors
wm
##amaq
luo
partner
fenerbah
executive
bamboo
stadium
kpă
horace
matxco
alec
isabel
stind
##ễn
gentil
##uggie
elisabet
colombo
0913
bbb
##lhasa
yamal
##rsey
accu
spf
atf
pont
huong
devin
sso
##pri
carla
##tom
sei
comple
##ql
##guide
gát
charter
gaston
oem
##uku
indochin
amn
kened
dela
nghệch
##777
downs
mers
duong
logi
##onghen
##virus
iba
##ôme
klava
##ebdo
idi
cmg
koenigsegg
sohuutr
kommer
melody
vineco
sentinel
connected
koic
resan
ubtv
asif
kovacevic
hallyu
canel
barrier
freddi
##4054
wags
##hà
palawa
1789
brix
##index
methyl
sciences
##mes
##islands
coma
##glio
jer
lower
##ces
mol
aq
xơn
dpa
##door
queens
0000
nees
##chester
##agna
basil
##fon
##764
marlo
myers
vên
##ark
dvn
panh
##sta
csr
##rodom
##kiri
galile
##elson
warrior
aquafe
kosa
takeshi
khedira
gyeonggi
sweat
forward
arkit
draft
profu
##export
museum
##aura
##otto
arda
salee
window
kickbox
##mie
##aher
tourna
yon
##items
mệ
gwen
##phu
##dtnt
phạc
sleep
##boy
airline
rf
spt
right
gha
##pcw
pai
##tai
##tics
sake
##ule
popp
##like
alcat
proto
##114
mari
nag
##pop
##atiso
##bđ
esa
##eal
maks
##906
miles
rosen
effect
alderweirel
geekbench
massimilian
scooter
swiss
piper
theater
sparrow
aiffa
pushkin
comfort
molly
negros
992
perth
##mbo
##tưx
bain
drift
pkl
##răng
galil
mcc
estate
campus
jess
##jarat
sad
trẽ
##olin
mining
stu
pẹ
ula
aft
kla
##type
##kpop
sure
##sx
1899
sj
983
##105
##dov
##edona
##omaha
##khir
wd
spin
aleksand
sac
marone
##jit
feature
##cca
ecolif
tbg
##rem
##kl
đhđ
##paoli
merc
jes
##rock
rudolph
rainbow
turkish
arrea
fillon
##hirinovsk
jfk
loving
##oyes
##cie
##fsc
##ặ
##phi
##note
bomber
leap
##love
coral
pes
sora
give
fang
brasili
##agato
keda
miya
cecilia
scheng
bvs
##rb
meta
bert
rota
angle
##aribor
##sam
hayat
##works
hasan
gill
##410
##ronie
##mitsu
states
##247
flyer
ori
bed
##dorra
##achal
chapi
042
satya
oreso
johans
montell
manhunt
herber
sca
nera
hhs
tttv
1889
##rca
##meco
##tov
std
sdu
##oj
sém
rein
yano
##udin
dracula
milicic
sushm
##ency
fanning
cre
clorua
dutch
bruna
biden
beauti
cobra
bitf
blanchett
kyush
darker
dirk
##dene
##mir
tđk
givi
##laifi
drum
launch
##pic
##uro
##elia
dns
##rbine
1070
path
cst
delor
##rlik
gemini
##rel
crv
##nsw
andri
##tvqh
ws
hospital
fahas
apa
mean
##maker
##ravelle
carti
723
brite
uma
prom
kelle
astro
carry
##mine
##ava
broadw
seychelles
tasmania
theverge
massimo
debbie
finsbury
kilôm
caption
dusseldor
kashin
##votel
maxk
##ated
rulo
scada
sanchi
graphic
numan
amm
##page
##hito
reign
dyke
đẹ
bisu
lina
brave
they
russian
hor
cyrada
##ndewe
atomic
##ienna
plc
##tbkt
ntt
select
##salle
prea
##tigua
jenn
##ien
##lot
##das
toyo
jett
##upe
##trang
mbv
hdg
photon
##abel
##ỡ
architect
barbados
hemoglobin
vyachesla
chemical
wolfgang
nytimes
pittsburg
broadcom
merrill
##igan
riyal
vadim
lutein
kikk
ottoman
pepin
uscg
kye
flight
flan
##ruman
brien
shira
tdbv
mandela
khtc
##ammy
raisi
##pilot
esc
earl
krong
rashid
ass
##hđt
bogot
asa
##illon
##byon
##tien
##lah
avi
minutem
##lca
##qu
ipc
##saki
tts
amt
ake
##rento
dvc
##sby
xôm
##ocar
dìn
##dae
hur
xiang
##oux
stay
io
##ovsky
benoit
corriere
ideguchi
kvitov
oymyakon
equipe
barbie
audition
kath
lambert
pyeong
##ingamp
uttar
##tđt
mimi
sunwa
fivi
neto
phillippine
gupta
vcc
##wit
akin
##casio
mati
##apa
##une
nar
yeong
##osa
corona
franck
mauri
vdc
##ewan
##ishi
celia
##avi
mee
maison
matte
wise
##map
fay
kari
lais
arb
phapluat
##venge
oka
##silla
late
##rio
charm
stre
xq
##acaf
atlanti
banker
topica
philippin
##ospina
pil
##kva
charity
augsburg
python
ratajkowski
kđcl
wolves
straus
mst
##uca
##phan
##dgw
shaun
ulreic
lifs
thá
fukushi
klum
hax
##toner
xnc
##2018
stephan
colt
##tium
flick
mille
carmen
##work
kot
gotti
rec
pedia
andrews
straitstime
##bla
wilfri
roque
1903
##poli
claren
mồn
##ewlett
ramon
##đdn
swan
##cta
cuv
georg
bxm
kbt
##iev
gac
chiron
##oga
##sal
cath
nhiêm
1050
##hel
champ
véc
aha
##atox
923
##vesti
sevasto
aladdin
cryptocurrenc
fascination
hooligan
papadopoulos
salesforce
somerset
faisal
katharin
saponin
ibo
kloss
ttgdt
couple
##neuve
rén
samar
norfol
##chukwu
jj
ira
yorke
siva
##bro
figure
growth
user
asic
lancet
webb
efi
atkins
##ein
koo
##eslie
##laq
##lium
##để
##ái
##ailen
phạn
##arson
jaa
icb
through
smok
1022
##ager
##artner
##wara
heroine
lukas
##dine
##edge
site
demon
nawa
##leaks
##front
ik
sanches
boke
boni
##pie
obu
##oab
wrestle
height
rosatom
belmont
cbql
greenlines
kirsten
christophe
genius
juun
nigel
##ễ
spec
ivanovic
yury
893
ats
shirt
shk
vsv
biti
avenue
##tsin
clement
leah
##col
dulich
fendi
##iso
lacto
##resden
##ẫu
oách
##hutto
##anti
##isio
ubndtp
asc
pilot
bader
swa
##sloo
teik
##dk
##ngày
##sko
mengel
##sty
##oyev
##ifad
##rsky
##owman
od
##ẹ
compa
weig
bci
##orla
vien
moonligh
##ố
##chung
##hamps
pops
lườn
vồn
##yar
##vang
##gun
automotive
enkhbol
helsink
ibuprofe
despica
dengva
hubble
tiemou
##books
pvgas
eas
##icma
##kie
drilling
cci
hđtl
monda
meitu
##299
##yul
katrin
##ứ
leg
nfl
adul
barrett
boomer
##salam
jaim
gunn
teacher
cropto
##you
##eux
##erman
##hanov
##sys
##rty
still
##dcc
##oij
freed
chil
feh
##triệu
camaro
bigb
##rich
##ansari
##itraco
##hansen
sema
juliann
##awei
yuen
aspa
marcelin
dax
##itf
dộ
polyme
bđh
fg
sonic
##vt
##sw
magnum
novgorod
vietbuild
ashurmato
davao
solank
##akula
spal
ade
everet
anten
##bg
2400
lukka
study
tccb
##yer
betty
##rham
##ecmo
##kwan
##rand
##reed
trader
##xtra
lending
kaci
kum
lance
##ddie
##oia
sae
kok
chộn
##yeol
##artha
mauric
ligo
poet
vtec
##omes
pier
##core
grigory
pì
patch
##system
##phar
camille
shanghaiis
##oue
wade
pur
beri
##rbi
##lad
##fit
cine
table
##arten
liman
final
confession
sword
guk
coll
tno
##gian
##eer
##gora
follower
shimi
pie
moschino
phnompenh
schindler
klintsev
sadiq
algier
baltimor
gelex
homeschool
obor
atlđ
apartment
##trident
##ricket
##neben
takahas
nad
ghè
spam
yas
thiê
quở
hanson
twins
jaejo
##game
browne
shots
rfi
karimov
##evis
##eco
##ibar
salim
mlee
##away
pcie
pod
##agoya
hunger
##glia
galapa
andr
ctp
bride
gerd
kaya
adr
ethan
carr
btm
##music
lounge
##ổ
##daw
##ahm
##pho
##kham
##corde
##sinh
ttb
pala
licht
##akul
dunk
##cino
bien
##sawa
##mico
intelligent
mystery
palermo
compound
humphrey
jrai
exxonmobil
eggs
mén
mhaw
raise
aranya
##enka
cnqsd
##aming
tropical
sepp
popov
self
##uya
##tại
chem
##river
geel
fumi
tracker
##place
rivers
leena
vus
##lian
blo
lympho
bungari
mế
flo
##itsuno
marko
##bio
milla
hospitalit
hea
nas
881
##cos
ciro
channi
##xaco
shine
##rop
shake
cardin
##osis
quýnh
##leeping
lig
kad
maker
shang
##lani
##harding
##gui
hug
vel
bean
goa
##đk
##pls
vâ
half
##argas
##yse
##dnn
rogo
suits
yars
caledonia
miyegomb
scientific
blonde
promotion
capture
reserve
ollo
rivier
deadline
landmark
josephine
gayo
cappuccino
cuadra
industrial
ilya
based
millie
satur
cardio
rabbit
qutw
gift
##riya
heus
dpm
##yuki
##vid
hammer
##resco
willis
tek
kosy
bort
sag
meet
##esnar
##apo
##nacio
mccon
##aughe
##bđv
scd
##airy
##weight
anita
##udo
##andal
##kul
##egypti
##501
kktn
##ryong
daniels
##smc
1407
##fb
##alala
##sim
pavlo
##tsov
hove
##vet
##egor
bleacher
hololen
slobodan
ultimate
cinder
monchengladbac
nani
detecti
brewer
calderon
stereo
##afee
hague
kaby
everything
kap
hato
##vic
##alpa
dalit
##tik
earhar
sarri
##deck
vector
nori
mirya
##emin
##270
peri
##inas
##ocq
##hak
##vanhoa
##fest
##right
coe
modul
ill
emine
##jia
dero
gđt
##vv
##stick
##lvn
vtđ
uhd
##trix
##onna
def
kre
##errol
polar
valle
##nur
ruỗ
hanco
ddv
chart
rik
spo
##thành
##tsa
seller
aishah
battery
equifax
cobalt
retina
forrest
shutter
##usni
hindustan
gilles
cks
vts
sasha
hđtd
##qđ
alja
##yomin
##rma
luâ
orti
lillian
mills
##ứng
##àn
abba
colus
##rill
wrap
##uban
atg
vige
##nover
flameng
##rque
glasgo
##gw
hsv
acet
shift
howo
##dean
##ener
##lands
fico
april
##erence
dứ
yulia
##ooyoung
##now
##igh
##ouf
bakar
##club
luk
##vmn
##vas
##ọe
brosna
masco
##pcc
helena
loma
direct
##iễm
schaef
goh
##nine
irc
arya
##giá
gcnqsd
skarsg
extension
flamingo
fontaine
fructo
kluiver
konashenko
melatonin
costume
misli
ulyuka
calver
lactic
microphone
congress
posada
##hand
information
##kook
##niste
madame
dnvvn
biotin
vsc
##lao
##umin
##nde
jtb
##bucket
##ayew
##spoke
gul
##ikita
kosp
moln
##mind
bonnie
brake
huơ
fia
##đtv
bundche
##203
ent
##biot
tamim
amino
fsi
tuền
maire
##oapi
sé
steele
cỏn
sequ
##rph
osc
vox
##mate
##thôn
##wali
gore
##ibo
sali
##ingston
jaya
idun
geum
oct
fars
##blatt
eyn
##uven
kgv
loic
##nburi
funk
lips
##480
##assa
cube
sib
whil
##anta
##oro
thiel
phôn
node
hermann
elia
monet
javo
##kkt
##ehun
##lom
goddess
adreno
bodysuit
impact
arnault
keyboard
rosita
gasquet
akbar
cđgt
##dle
transcend
kathma
lehman
jisoo
fried
lagoon
##face
kdtm
stro
klđt
deschamp
qlxd
##ace
##yen
burg
windy
##shina
##mercy
##ple
pạ
1870
dunst
##sine
##ddy
hachi
##arel
flor
##ère
plasm
eyed
##nastas
fca
vita
##gaard
barr
##dđđ
##alida
##đd
##ớ
##ifixi
wilt
quị
##oyo
1740
##cey
##borg
cost
##ntat
##ayev
techo
##options
blend
kepa
##minute
subo
tmt
ew
sweet
balmain
fiditour
orchid
pediasure
economy
storage
bcvt
silent
transport
malki
jihad
cilles
soccer
stratfor
klay
rosemar
carmel
mcaul
khampha
trench
hapilo
rotor
northwester
harast
devon
jara
đă
sêrêpố
##dependence
option
brooke
##opia
hđtp
mbt
##oản
sor
roche
##rica
penny
##1200
##ẹc
##bold
styl
##ushi
qian
##cem
##rư
beret
vict
vsa
sami
khome
phum
##ré
##ẩ
semb
witch
##lini
##sberg
##egan
mus
##iker
##phy
dino
yar
##eria
##reyes
##friend
##ying
lavrenti
##fv
són
joss
aman
allan
##ntosh
##onchai
dử
afar
kj
##ôl
##iki
lich
avant
rosell
##hiện
##kido
poll
xie
flame
##eid
##saba
cheong
yorker
reps
hùi
##ester
howe
nui
parvathane
sofitel
teigen
vanquish
benedict
professional
##avanakhe
silence
taipei
slbm
lucasfilm
olsen
ươn
aka
coman
##chat
daiwa
##ops
nhiệp
chdc
##ascar
giôn
vmc
ryom
##ebert
sands
rondon
##dara
##hul
##nak
##teke
sav
##onda
agrise
other
edwin
reader
samco
velas
indra
##orker
lowe
##eatvn
urc
fode
winni
bbt
##qt
##ipin
crime
mlad
##cebu
arri
cecil
##iana
##wer
abb
##mid
##roque
mila
##atherine
tvs
##rabi
essa
##phe
cordycep
grindelwald
palacio
pulse
kourt
surviv
happen
playstation
rostov
facelift
grenfel
sophea
##hilary
samrin
skyline
adrơng
babylon
rublev
##sẽ
haiku
##202
dona
pirell
ashga
##worldwide
##rius
gosh
gage
##btu
##juan
dee
##tani
##far
inci
##not
##antas
##aghi
pcb
taste
pring
alaa
##grave
lada
kil
mirai
spit
ito
electron
sumi
##agon
miner
##opoulos
baku
##endra
##credit
##court
vasilyev
powers
carrag
cadi
nitrit
##tơ
hirono
mew
pecc
dres
rest
##những
novan
contra
##aris
##elly
##yron
##abo
pant
##kand
##gado
eid
stox
##7269
yana
##eps
cycle
nio
chef
thâ
##lip
aleix
computing
cosmopolitan
crescen
gianluca
synaptic
salsa
oasis
metallic
carrera
ronny
##850
nasralla
##ecook
verde
wagon
antimon
masik
##ntt
##aplan
fabric
close
##eryl
bart
##ndler
1887
duff
flowers
bermude
##gimex
##cup
##xton
commu
ais
##tegui
##exco
##iwa
cé
phra
flex
quito
##tiana
##orus
gđđ
##omi
korne
##hanel
sgr
##ayat
##had
##avar
naru
hayek
kru
stac
pig
##lroo
grove
sach
##upo
cbt
##eiber
chain
1820
##sgđ
##orc
elie
kayla
cab
kursk
##eger
odo
jardi
##str
delc
sòn
casco
##hun
mă
##eeler
batt
contact
virtual
accelerator
eritrea
gigabyte
initiative
lefas
maersk
freedom
majestic
outlook
vermont
thé
95613
siphandone
blackburn
xrp
haraco
celi
kering
insign
gloria
circu
shayra
plato
kelbi
##shipping
axio
archive
tarantin
ankle
##sense
contest
magi
corn
##pj
##fair
##hcm
films
##sung
##eon
##arrington
1860
uvb
##dhi
boost
##130
##tê
geu
pel
berman
samu
npc
omer
hulu
lives
##yandi
##fold
meh
##iguan
##owen
baptist
brie
è
msb
##nica
abedi
##đqt
jeanne
##279
##khan
thal
mensa
xồ
##ũ
simple
##gf
##atuna
nora
hydrat
iw
chicken
##rance
##bad
##iere
##henge
chalamet
conversation
intercept
iskandar
liquid
nairobi
cristina
legacy
debora
recogni
marquin
optane
vallejo
cedric
oriol
gyeongsang
91552
syngen
gsmaren
architectur
##nmpo
##yatt
bukama
kiri
deja
misty
usilk
deli
aragon
border
vorone
aristot
ric
##hình
nhât
##calcium
pray
1861
##atcher
tis
kuril
##tinh
##tỷ
rene
##cfc
##ebio
##oegel
pei
labo
tyron
##ợi
btte
bul
corni
ballm
wis
##171
##utton
brandt
##oke
toba
siberian
##fat
prop
ccq
##inches
##hov
##utter
tatar
lyn
đăc
spe
fidelit
##akis
redd
coup
##busa
ames
alessi
churu
##hedon
lis
##cas
pres
gyeong
ngươn
rings
kash
##street
auction
kasper
strategy
notification
fischer
cskh
superbike
##lxk
gremi
tuscan
launcher
breathe
training
gdvl
ponce
ruhr
palmeir
agro
worth
benham
authority
##tsky
##kkei
3500
sonny
had
##tico
nidec
saad
##poxy
##enchon
nagano
1440
##tanf
fift
alamy
hanbo
patel
##akh
vijay
qd
mof
##dec
##oey
agent
gox
topol
hurt
##lấp
##126
baodaut
brig
##ojo
khat
##agore
ark
anwar
##102
url
##iền
##etoko
sesse
bol
fairy
ramen
jimin
ckc
##ichie
##ionic
osin
archi
##vie
gop
##336
kep
##gsx
##etnam
##jk
##lev
##inny
thạ
glu
koe
##muda
adria
rie
domain
thèn
kawi
superdo
##etcher
eat
caroten
jel
choạc
cosmetic
mcdorman
opioid
collison
javascript
beetle
guyana
bethle
##closan
goular
##mut
begovi
nemo
chateau
##erre
##cw
qiang
ek
nanyang
kool
##waja
basque
valerian
cit
##1885
visit
nị
abi
##nium
##hebei
noble
##atsa
##dsh
youn
tribec
sheng
##abiga
##rod
maxie
every
lava
##pit
cav
lineb
vơí
##ango
riva
lavar
strait
crf
gls
ftc
khì
weather
##pland
petrona
##form
este
passa
stri
##inier
##skss
##aqsa
amylo
parl
##wealth
##trend
glam
##raymond
scar
calci
##ghẽ
jaw
sheer
##nolas
##reál
nev
boongk
yin
diet
1884
##ấ
tetra
##lidar
nye
roda
##lemon
##uko
plos
haru
##đh
##yushin
champarama
kumgang
pegasus
##mplain
mustafa
editor
qcdc
fiber
freeman
camphu
##bet
##umite
optimu
corset
immel
##hat
##ulico
##logan
##yun
jump
##lisso
##phat
dvmt
##401
anime
sign
gsh
hatch
vixx
phenol
mượ
ear
##tomo
##106
##nas
andes
##uno
gms
willy
##sri
maple
rambo
##xem
##dah
qing
ecu
sã
cache
digi
antony
##bong
fh
shia
sheet
##rna
##loa
skr
1193
##cio
vila
found
##ears
##immer
##về
##ebra
##tye
montere
kev
##lace
##dcch
fp
##dtbt
granad
##rani
liệ
vince
##spring
sungkyun
##chem
##lim
aissami
carotenoid
aymen
cosmic
guerrero
blasio
maci
makarov
feeling
lookbook
athena
cannon
##pun
psd
della
90191
cabo
skytra
woodle
activit
##nse
##opje
##riav
ono
1897
grish
##nobu
carame
render
##enday
##obike
##123
woon
joann
imperial
##hold
##sche
arafa
nabil
bibo
rostec
phướn
oum
linkin
olimpic
phospho
##marcus
##inda
##bes
poor
##ans
wash
jame
maika
##teur
nitro
##rw
ndf
##rbin
nhom
##khách
##bara
hali
church
ref
selec
##580
hamon
##nđ
catse
cacc
##ppi
##lts
##ssi
##pat
twist
syn
fami
josef
abel
goong
wasi
sera
cls
##kdo
reuter
##kid
schiff
##anny
fucsovic
hsđx
komilov
mandarin
micronesia
gigabit
spinner
petroset
fitbit
kilôg
emanuel
believe
mef
##eiss
tosun
yum
##melia
nakamur
##ebel
apo
##kong
ksbp
corden
fut
##sburg
kpi
##359
##agi
##omatsu
colon
shirai
loft
tonga
##dre
##banking
ifan
##nard
xúp
##eff
arem
matthi
##kao
fern
##919
ride
##unya
##plex
##rtex
vietnames
##nough
##kamp
touti
##boxer
##gor
##ography
##alem
##ded
##ott
ranch
vietga
##cheng
##saigon
richmon
##dnet
##cũng
taki
##coma
thòn
lun
riel
##sala
##lite
##sur
amla
yam
##other
##nina
kstt
trâ
##pse
kora
apr
##rfield
vehicle
##ingis
##agreb
bcđtnb
bolshevik
daydream
ebrahim
promise
remember
schweinsteiger
supreme
coliform
graphene
arnaud
fonop
woossi
holoca
niacin
sunset
quinn
forster
loafer
valerie
ttdl
walee
ayu
##llđ
habitat
nea
##exim
bsa
hitman
##isner
marta
##nte
##new
gasol
##syam
##uamua
goet
passion
##myoung
mlc
##rice
hmt
##sava
sển
tool
##tcha
omni
esthe
##aku
obi
##oel
collin
##ass
bq
lewin
trố
##akhar
##nda
ask
vtp
nichols
dpr
blocks
src
koji
jamil
##ration
sem
##dler
##may
##linger
source
putr
vieta
greene
peak
##ocmon
##thpl
blô
bloc
wee
##ike
hodg
##hof
##ncini
##attre
##valu
##smv
faros
dro
##hoàng
faust
xue
cẫ
ceausescu
chronicle
dangerous
environment
lagerfeld
coumarin
dimitri
insurance
kamchat
shcn
##xaca
swept
##arlie
payt
feige
temase
tnk
jiri
capone
gú
mamma
nst
chcn
peas
savic
younes
cri
##oulay
fangirl
##olér
geneve
sohee
cow
hcl
nhâ
##cente
##bear
##uchel
vibi
romari
agr
epic
##isters
##xander
##qb
tatc
amur
##inva
##bino
horse
bount
homes
kue
must
sệ
##cent
dev
##tnik
sever
9810
nicos
lexi
##apron
##eep
laver
##tine
##adej
musical
tss
enro
##weather
##challenge
##wolf
##mrcc
##gear
##vir
##riley
##uốn
ski
##boys
ode
##suv
fas
##blog
demar
filip
##wto
dừ
edo
xttm
##rtd
##hurst
kpa
stanisla
jumpe
##stad
0905
##design
stefani
whi
##rtiga
gain
acetaldehyd
felicevich
herbalife
kermansha
material
morgentha
neutral
penicillin
spaghetti
svetlan
thousand
tutankham
vaughn
novikov
sakhalin
ccvc
television
equit
ubktkl
albright
alegr
guess
##vlin
dhb
santo
vnacc
lorrain
kilis
##rbob
suli
##even
daphn
margarita
##nesk
văc
director
megawatt
barnet
sed
csl
widow
pun
opc
gaet
stade
##aha
southeast
agar
ital
pharm
nvt
##ahid
hav
##obin
##sht
##nath
##sso
shore
##rell
soup
##160
##par
cody
##greta
waka
##achida
sud
##force
ryo
##oyle
##auru
choline
ibt
đvc
hands
javi
prima
meme
##awi
bop
isla
cov
##uto
lỏ
benning
sylvi
##117
##scope
##koff
##grid
##ement
##alfonso
##spot
##yonnais
##893
tcs
bena
meat
atl
erm
##stop
shorts
neave
frei
kors
puel
mea
##resma
discover
##ondo
deng
##340
cessna
dynamo
goodbye
observer
polynesia
redknap
sonasea
leather
mujahid
fodor
milovan
rodchenko
higgins
location
kavka
jaysh
krack
compost
raffle
##rrell
##commerce
exit
ret
dayton
maroon
##204
leone
##ches
##antivirus
##abal
mipec
##tdv
##quin
jasper
##ges
strato
##tano
##666
hisham
yung
##lvh
auste
cbcnvc
matsud
##ên
##kyo
##flix
tito
karo
mf
past
##lais
obe
##kita
##368
qhd
##ede
oss
matsu
##én
##shing
cosmo
aoc
##hf
##eke
ely
cork
inca
##lity
giong
##allah
krav
cuc
##ely
ares
##ante
ktđ
đcs
##but
pạc
lổn
##inter
##sul
heal
foy
##binho
karenin
##mai
##885
caribbe
auschwit
elyseé
triumf
yosemite
gladbach
thuylinh
circuit
doumer
##tanol
extreme
##pennywise
##elso
bă
scout
##quốc
keato
candida
##papers
person
##lich
popovic
tether
##yssa
dhuh
supa
coban
8895
psv
oval
interla
sèn
homo
kich
##134
cfg
##lla
artem
##aev
porte
vihati
khol
##wani
ogb
macy
monto
##test
##gang
halo
tenor
##olic
angie
mêk
gobi
##lqg
plumm
##nqđ
fomin
##atuk
jk
hare
##rex
##log
##ception
kala
bilir
tci
sche
obs
downi
phé
prasa
tcb
sũ
##apping
belt
##pal
##ruk
##ksk
##photo
vietnamwork
cannava
##meeting
nư
##therap
##enthal
##cai
smw
stack
taf
yumi
##inai
##ssel
jx
walki
boun
##yenne
kemp
##ờm
ncap
oic
camel
mikel
hash
sachi
cherokee
merchant
augment
milimet
saldan
maksim
laurence
lausanne
yanukovyc
cttg
##ipras
proof
kns
##vc
##107
##gul
pli
emil
libero
##usa
bridget
oli
narysh
schr
chivas
balance
dangda
##afra
##trade
##darpa
edit
streamer
dich
florian
vela
tacn
rising
anpha
##ahmane
ritch
##hae
mgm
aust
1859
lean
toco
##best
guil
##radar
##namori
levo
infosec
##ftc
##trap
##273
thank
mans
##ườn
krasnop
txc
##bán
##erov
lua
macd
dal
lena
photograph
thõ
ibs
naruto
gna
arian
atis
ntv
meth
##hankar
jama
faw
velo
kawai
đượ
##170
##doanh
nfa
##024
##bok
greenwi
jingl
##walk
##apô
##acher
##ander
feld
##foot
ego
##té
##yanin
##caa
ige
##siam
califo
##mtv
##ttp
##nelo
##taka
##isis
herr
##islav
ntđ
##gtel
tft
hawa
sie
itv
##osate
giạ
bartra
grass
##157
mende
agassi
bartender
moscovic
##umwalt
heinrich
reason
friesland
malabar
cbccvclđ
vanhien
tweed
tckt
##inatra
newyork
mobility
##itch
whir
stage
framework
mavic
##soe
##libur
capri
sule
tuyensinh
scandinavia
splash
kafe
rơmo
cassi
caspia
riga
##118
##nxk
jardine
##4266
##ợng
##jc
move
##cosmos
networks
soe
kirch
##gur
essie
##idi
##ags
##cking
##stamp
sata
clv
##sworth
third
lue
tonigh
##stadt
bryc
##2027
cũn
imp
##meh
##graph
dench
att
silo
##odon
nex
chiển
##qsdđ
somi
##cks
##fp
##eber
cbp
ecpa
dre
cities
ưỡn
melo
nikke
##kander
##connect
vaselin
##rach
##week
##dolf
rss
kle
##ắk
aspe
##hamoni
scarlet
murad
cfa
judi
isle
kale
1850
cgm
chirathivat
haqqani
hryvnia
photpho
thongsavan
tutto
afgani
loyal
##sara
quattro
bullit
keppel
tanjung
vietjetair
fighter
faiq
yuichi
pulga
vaf
jermain
parma
mochi
palett
##adeh
viettin
##jad
yacht
##nieri
solution
phosphat
filter
teham
##thtl
patter
##aman
gluco
##alexim
##sheng
##awat
##marilo
tfp
beth
fosu
alphar
vee
##iệng
buck
jain
##huy
own
boas
##tphcm
moọc
kaja
##rador
hate
clare
siang
desk
câ
##0415
cake
luong
##orde
christi
##rig
drd
pea
##rone
##oster
##meter
patti
alvin
##rossiysk
##ibas
##fort
garbin
piag
##suwan
duck
##này
cardon
sid
nasri
##785
takam
##esny
rev
gă
petrol
##kute
##elosi
##phon
##laise
##tein
nast
hnd
đkc
##sci
sind
area
abbe
##allum
##ink
weit
##ởng
petit
1010
butt
##tim
grin
hien
##enses
1788
compute
christoph
##oussef
##nchengladbac
gyllenhaal
ihean
inspiration
pocket
levandows
brandenburg
memorial
malawi
pylor
nafoods
destin
hemophil
protid
malone
scull
groot
kenichi
hostel
kimberl
schuber
##ăc
##yson
current
ele
##198
hole
##modo
alen
mitsu
petri
##bah
kind
gone
hella
bumble
##stasy
patak
gardens
##adden
bric
johnston
huar
garret
##727
ajin
kou
##999
##pus
##ochoa
navigat
hdc
bđd
##akhan
##como
##oft
##untu
##idf
borg
tur
##early
aart
bagu
##ichiko
models
gabriell
##490
nxd
##bauer
maybell
whos
##ever
##estival
##tama
leia
##ress
cgt
##aladin
##taker
1226
sdg
##asina
hec
tintheo
##ecoin
vacc
cne
##dit
hcc
##lberg
##kawi
méc
##bf
claret
hsp
fore
samara
##fighter
sle
##center
1840
argo
toki
##riri
beom
tart
gou
ink
amen
##dro
##khang
jv
xian
##duc
strom
cnđ
milor
##aseco
##olis
ulyanovsk
fk
fountain
ahmadinejad
botswan
gerwig
murakhovsk
patagonia
phnôm
sithara
flint
heavyweight
delaware
leopold
restore
automobile
vinamit
workout
bpckqt
provenc
##eijde
regal
guaj
##ève
reviv
glyph
skyactiv
challa
grudi
hossein
##aquino
##đan
slash
sawick
ursul
rocha
donggu
jager
pattan
saadi
gnome
hamid
volt
phuoc
charle
latte
##289
##987
carson
accor
renner
nuô
ober
##quest
petrov
##kindle
neal
ubktt
##sium
##canto
##cons
paj
godi
roòn
##srah
hawks
##phil
stepan
hodge
##eul
agc
holy
gdqp
mohan
lover
mistra
mayade
jeri
##ipur
##eitu
##stall
intra
maro
busta
##ires
##esquite
##urd
##nev
bran
##sit
##afaw
vcd
hela
hof
hbi
##éon
export
pilla
##138
##hahn
barde
bren
##vre
glai
##scan
##ulland
werd
##bowie
##sdale
towns
##iavel
##arita
##iteb
đră
onew
designer
##serco
##tya
cbu
maxima
alexandr
##ads
bluewing
momen
##dick
fear
pvb
plata
ictpres
nil
##dvn
##enit
##law
##cnic
##ficial
sturge
dagestan
qwerty
sampaio
swinburn
terminal
jpeg
desert
nen
déj
kiribat
matvi
rijk
volgo
benati
woori
kota
glycol
merlin
##đtđ
vtna
##sillico
bđn
torrent
pyo
##280
calcio
meun
##cafe
##elago
eliot
generale
saber
că
##lein
spk
maung
##thông
##acus
##raine
gmb
##dian
galactic
pectin
ngạ
##ktxh
##ertes
moca
##oshi
brv
carnav
##mnn
##hoàn
tsuki
0010
##trường
##tting
marty
gamble
##bieu
##cap
ướ
##alore
##loc
##lls
xf
very
##strada
##mese
bev
kro
##nhà
hvt
tec
##tian
kita
niễ
gmc
##1896
##hoya
##lova
##tthaya
birdie
##cker
##ovski
gobe
đct
##barak
stick
noth
##urin
##trên
jana
##oein
tucker
mathe
##jang
##imson
prat
##marin
ponaga
toru
qlct
cambri
pmc
kirst
##lang
##227
anqg
hđcn
ustr
timothe
##cored
##sns
##vares
falls
##ubnd
tienphong
dreamliner
hernán
manufactur
vantage
krasnoyar
playground
northrop
keystone
brittan
robson
##stalla
adnan
hacket
bpkct
##tran
##173
##fd
attiya
##espress
vall
1894
tadic
ấ
frost
miể
myei
adapt
##ecky
##glian
bẳn
cerv
rph
##tomat
##obe
kalad
##adsen
##rton
cave
ajc
##2662
brenna
akash
##tum
##ườ
##cera
psa
##thị
cordo
khloe
hbv
bye
##xít
##268
clan
##stin
cule
##okara
jena
comm
plate
neuro
asta
afta
##1883
##vp
1088
hnv
##rama
##ejo
##112
##dico
xxii
sagan
solid
ofo
vố
neom
##175
##oodle
##omy
##cert
norinc
##747
##shock
##jama
lcs
pgh
##waki
##sion
##enis
##euth
idea
traveler
sele
##stay
##motion
##469
##lme
lora
hển
##buk
##urs
rue
ibe
##ojb
payo
##naka
cove
##oksan
polari
##sell
plant
sls
lili
coun
nguoi
admiral
bussiness
desmosedi
mcgill
transimex
pearson
volga
gotit
ibarak
connection
nirmal
murci
seagames
hđbt
##udol
##akil
ranking
##anabe
##ampas
gleb
mcken
##225
##965
##khả
tcv
null
mln
davide
fide
clock
##ient
kamima
##355
pứ
shaha
ellie
##sei
##ente
being
##preet
nun
vms
##bke
regina
ics
manama
salava
fix
##969
##blanc
japanes
bardo
sars
##vbp
##tracy
3008
##rco
##vander
##rto
lec
lumia
##imef
##qib
##rul
wonderkid
##uyen
##desk
##sync
mine
nov
barra
kuk
whale
##oune
##igla
##nđk
barbo
woong
amas
##yed
ibc
till
##spe
##lop
rule
chess
##ngfeng
##vdp
##sted
##yă
##trum
##ulli
akp
khal
blank
ttcc
asphalt
document
incredible
raymund
rutgers
trembla
vifores
broadcast
ulrich
facbook
flatlin
sukhna
sharing
kardon
hologram
aslam
scorpion
daewon
dining
tfx
punk
rhino
tbd
herbal
##campina
henness
hopper
quota
baikal
dale
isr
deok
did
##jevo
##bie
##dicap
##ìere
janss
autobot
mso
oxide
atv
original
tod
potas
##wind
osor
copper
hank
ext
##clair
matse
porn
bara
##rup
irish
falle
hđn
fal
technica
##ầ
dominik
##rds
##dow
##640
##rây
feu
##iago
albay
pear
##winks
##hoven
iida
##phanom
adan
##mash
arira
##mere
##occhi
statin
##avil
##foss
caree
##568
janne
##adayro
jac
blc
##sbury
wf
ibn
crypt
bulge
warm
##irin
##mot
##andy
kalin
jenk
bli
fw
##deco
xieng
##elow
##inity
craft
##pixel
cheri
gina
marche
rutte
##pack
ple
1830
##pbs
##ender
hold
seti
nikolay
misch
##echin
##kovsky
##bak
klb
1841
##amar
edi
quest
##nister
chair
##cdonald
##mallow
##sale
##cis
##ref
##rado
##olita
##mag
##arri
ahllvt
chowdhury
clucas
hyaluroni
oleksandr
prolacti
wakanda
harbour
opportunit
eight
ashraf
nurmant
bluescope
slutsk
bluebird
hổn
##210
kirill
faith
kodak
graves
sipr
erga
bithum
abass
##apov
keeping
amier
##189
##phc
##140
##piste
cheese
##ậ
lar
##doll
##rtmouth
fruit
inteco
helios
aslan
ikeb
##arlow
covent
cđvc
dimor
##wigs
##jaya
burns
corre
##cito
éc
cspc
tristan
##naland
##abiko
##fried
myno
keow
aron
klong
##urban
lgbti
sead
##bashi
asht
higher
tctk
##sec
fent
khủ
css
##wee
##merch
amal
coming
berha
khalil
ptit
theme
agi
##hampton
##ath
bec
##èn
sime
##iniar
there
deco
frit
round
boro
##1700
##adav
##274
##aruda
iga
bomb
##llack
##girl
fong
##vào
##mgar
##haj
scc
##through
##smith
##ccio
##efta
##toger
##late
##cke
rip
aac
rhode
##market
reus
##wave
manche
napol
osman
##ippo
sct
gdg
##đê
##vonne
naran
đkđ
##prasert
entwis
korotchenko
ludwig
puebla
aronof
ervin
sblaw
consultant
##hamsik
khrushch
artemis
agath
official
thinq
usher
techcom
mouse
terrace
##ewitt
##vik
pioneer
kfw
##đsp
indoor
blun
missile
vneco
citro
kwak
staphylococc
payment
glycerin
barber
drill
affair
rustam
ply
##maldin
sriva
alban
fuller
bmd
##sfield
gvc
ptđ
saba
mauritani
piêng
##vera
##cross
corun
##hoài
hyde
##hda
tntp
phoma
##đang
##hung
svay
##hardt
##bli
##veit
mbi
##elles
##acob
1891
emerg
##trophy
hear
asiana
librar
##esson
egypt
##uthor
##qppl
##gold
##304
##0404
##cana
flat
##kami
##ahra
##fius
nic
##kiosk
ferry
##retta
rv
gallar
sbc
dorm
soho
baha
##amic
vast
micki
##control
keuk
blt
##nac
actor
tén
energi
their
##luigi
##logy
fna
0243
ame
sồ
holl
##tsi
tsc
##fein
##mcg
jba
##berger
vhd
carren
##wen
shol
##egas
vitali
##iordan
scha
ere
##235
palihapit
muhtad
punjab
waterloo
webometric
sandisk
sacred
oversea
tahiti
auchan
wikimedia
weiner
##umhur
borja
bengalur
llpb
palladi
alfie
wildtra
##aroni
dopple
joly
rossiya
balde
jedda
gentle
##vtn
float
0903
rhein
wine
tier
emile
##fotec
hanoitouris
seafood
vola
gunnar
leisure
##toria
actu
##xedo
fung
##rsaya
##onghwa
##cen
hajj
##uslan
nutrition
pttn
##sau
ntb
metan
foxx
##ogen
##ocmai
iota
##jubo
delay
##gris
##agoo
##0000
pcth
pina
##lmer
tul
seren
vlc
holde
antg
##jitsu
pike
##seung
shoe
##alisa
kras
##itter
0236
volta
##rtarell
##matsu
##rdx
ngươì
acm
##258
geoff
schi
hnc
senna
##ecj
butter
##veston
dhc
qtd
shik
math
emcas
mineir
tori
shak
pheo
##ctvn
##otre
##632
##vice
macan
ulatec
##elter
dnvn
cotill
##lta
##és
fmm
##ainab
cheon
jf
titc
jeonj
##mỹ
ibtime
palestin
illuminati
communication
icbvvnvx
breitbart
dumbledore
magnus
vnukov
atelier
cornwall
shavka
stradivari
filippov
sunflower
armour
helino
tallin
recode
##rillion
exca
volume
kegel
meridian
##vê
kinoshi
title
rupi
##damen
moka
ilka
sisso
trope
symant
##xing
cto
taw
cbn
##erkis
##như
damn
shih
baomoi
##rew
hammon
nabi
##asaki
##adhd
energia
##bourne
ooh
##979
##mum
bette
##eddy
chee
techno
dalio
##ntd
canal
##vago
##fonso
vietrad
##clip
balbi
##ebuch
baton
saha
##kids
gino
##onia
unise
bfc
##etna
##akorn
sten
##rdi
mirre
vpq
itn
hyeri
##arte
harmonic
##sight
aye
##eres
nac
##hogan
##ocha
leu
tanin
##drang
vươ
dunn
risk
jal
herb
salem
june
##aire
talas
1096
##rhus
##shift
##trần
##hanli
hosk
nhiê
##central
idan
##labs
yunh
michaels
efe
hendrick
hits
0008
lụn
##ube
gret
watan
dern
disk
1856
##agona
acro
ryb
##assy
glyco
##imb
##arhar
##naissance
alternative
arnautovi
butterfly
cyanuric
irkut
millennial
vassily
yekaterin
application
laborator
snapshot
bianconer
mercure
oxalat
vesuv
sawyer
instant
evnhcm
miracle
dolphin
thaibinh
campell
sgdđt
yamato
gugu
thermo
ramsa
tampon
truth
lauder
##rlington
verdi
##xis
adapter
##amer
escape
##dur
##ló
##lene
leti
sister
ally
##eville
hđts
pasta
bled
##stat
stanislav
##oback
adora
##eves
1790
rvt
gbh
##xdvn
##duong
##bir
jock
##hore
anastasi
##oskar
arisk
tmh
ida
##obita
bour
hw
marri
abt
##akson
volod
##pco
ican
1866
##lé
##131
luisa
cote
htn
##oshida
alle
tobe
##ior
2700
aso
afas
##eae
##ream
##dek
##agua
##inaj
##963
##848
sakho
##pot
xiaop
ậ
##nadu
##vip
jou
kurash
much
1075
##anka
##rath
##ansky
nere
##rix
##oompi
##vey
nico
beerc
vitol
##tao
##arell
##ttl
aviva
allo
drap
##pac
##olympic
##uce
##hatsu
##oller
same
kato
##ffer
vnx
##pax
inta
1863
##eros
##money
rsi
##dlo
ttđ
##ượ
setting
##truff
machu
ambassador
andalusia
bancassurance
hydrocarbon
mogadish
quincy
reynos
##something
##happiness
brahim
package
pledge
tet
mahmud
ryder
andromed
karachi
molina
gennar
##ickens
gemma
##ppa
moda
ubatgtq
distric
dsp
##cione
elm
button
paraben
##303
addis
đktt
##offees
amor
neul
##lít
##bkha
amit
iac
tavi
nyong
##exay
##undy
##rmina
##erland
##postbank
rust
##gie
##aldo
cable
digitime
seko
mep
##hmash
##erin
maris
haruhi
patin
minion
##trage
ars
nhù
##sure
jonh
bets
dpi
##compare
doris
topal
##erra
##otte
##alogue
##price
##ppy
##seco
bentonit
luu
isc
ione
##gopro
##roll
ferrag
1632
##rơ
kub
rosso
##pet
lien
##nichi
##lander
vug
##loong
icm
colomb
yuko
wah
##hatay
topic
##nshu
##ions
fcn
##lick
lund
transfer
patric
arr
ninet
jos
##cart
mack
##iaaf
##ệp
##opping
##quy
##tj
gry
2034
chằn
anniversar
entrepreneur
github
hawthorn
smackdow
clifford
exocet
friedrich
mubada
moncad
vergar
jalal
tsutom
sapiens
ebook
garner
borges
shahid
subi
lhth
twenty
imax
sagri
thhh
ferrer
pump
hva
hafta
##kynguyen
##nad
letter
naka
##eley
vgt
nuremb
iec
espan
cfc
ccs
kcl
penelop
##vfv
##auto
##ghani
ultro
sề
castane
brando
hypercar
##taro
jimen
uit
##once
catcher
##arro
uva
astra
ilde
tick
krista
desc
cvđc
purin
##ttt
##190
##dge
das
##124
2235
##ames
##cô
dỉ
ura
##icos
0916
csc
##assey
##okhov
bend
werde
##utcher
##akamb
arrow
slot
tampa
##rne
##mqt
escalad
##uber
##exchange
mast
##179
##sign
##gulen
verb
##hari
kuri
##uwa
liê
##layout
##file
spp
##itlin
##sville
##rosa
##hieu
##toàn
fii
bring
##adena
rate
##ajaj
##ousef
logite
thien
somali
vanguard
malm
##wr
##apse
##quim
lavi
lowr
##old
##ừ
nauti
frequencies
gyeongsangbuk
smithsonian
wilkins
akamai
glamour
movistar
steffen
mcnamar
gunners
komsomolsk
eyeline
wonderful
crete
evolution
##nette
##ulpo
quôc
dọ
merck
mateus
grum
krypton
garena
##orro
##ningen
##stair
##ớn
##ulla
kyul
ammar
assam
conde
##ulele
calla
barak
##finder
msr
hyang
hcd
pín
##amil
fade
tbs
shea
##nguyễn
##eane
cyril
##eating
mcca
##605
prote
generali
xtin
pau
##dé
tiran
kirov
##pul
eff
1058
pát
veda
##name
##kli
##128
mcco
firework
##ility
rok
##gong
poirie
##eongbu
##later
dina
mena
parkson
ksh
##suk
boc
sre
##vy
##aude
corte
##559
##myr
##obi
wiggin
##egov
##dw
danci
vale
##cut
tales
prey
##panel
rajo
links
personal
##omina
##943
aria
##bà
kiki
dẫ
##205
atta
##bby
##ayan
0007
##gyong
##560
bpm
sons
##uyến
salle
drink
chevro
##mtd
khướ
##oire
##vil
iav
lìn
lie
ceramic
faulk
offshore
vietrantour
vinasoy
madeleine
soprano
yonsei
thegioidi
amyloid
yavlin
lantern
vibrio
##akalot
paragon
hydroxy
##rashtra
##jae
valero
rosé
rhine
igf
splendor
jianlin
##alis
##alysis
willie
naval
maggie
##159
wurt
##olov
ikari
3200
##cel
dusit
##deroga
nasir
oppa
valk
##dgs
geb
##dvvl
1199
rề
diabet
bandar
elio
burr
cnq
luat
##đkkd
penm
maggi
skk
rian
princes
##fie
revolve
##yanmar
##efour
stm
##uwp
##clean
##rushev
karan
tsang
##allup
##aard
loàn
fib
chow
gall
0966
##tutu
##euré
bibi
##alita
bola
mpa
bein
##pla
##some
##npc
##ắ
##wald
towers
##ẽn
##gol
##ader
tamil
ghita
##pére
bres
pw
wor
sio
bug
lira
##canh
##evada
develop
katsu
##tdh
##oula
microus
##758
capell
tns
##rain
##ghan
rifa
##health
leed
sella
##spa
danon
##nol
##onal
dune
##giaothong
##256
##loop
##dado
liến
nuớ
abo
reykjav
bruxelle
tryptophan
vulture
sulphat
leto
daeryong
dsvh
cranberr
rasmus
registr
kontum
kafka
daejun
interview
cueva
supersport
##mycin
farrell
franchise
##acon
pentaxi
friedman
gharan
hiroyuk
##mber
valve
killer
##aert
##rwin
canadia
##ktt
##ssy
##console
usf
##éry
basset
armand
##arino
stern
cpec
##2561
##vq
baokhi
shinhwa
lỏn
phhs
dhs
avan
##470
hyder
hopman
rack
westmor
##ead
rơn
veil
maj
##ipit
movies
murat
jcc
1804
##eq
lavie
jul
adv
ktth
ish
ptn
eckard
yakut
pttt
lodge
##íu
male
reb
slav
schroede
saturn
##rgen
pug
tsqs
trẹ
phư
2160
culi
##ambo
suso
##yeh
##sner
sheil
nich
grid
bgđ
ivs
##pter
##selaya
avia
##proma
suho
##chương
##path
wet
##lsey
##oros
commons
paulin
wac
##analys
##2020
aug
hera
ath
##put
##entic
1232
##sarel
##lison
fali
##608
putra
##tional
yuet
cafein
bernie
##ival
##etty
coke
##unna
ẹ
##aggi
kasa
read
ravel
kđ
mera
##689
##tcr
##overs
buộ
##brew
sic
fanca
italian
##mj
##masa
vhc
jass
##nhiều
bargu
because
bolykham
chiwenga
glutathion
orkney
rosoboron
address
abhis
swish
ttksgt
veronica
threat
androgen
tlđlđ
dotcom
pichaya
đvhc
starup
petrus
bleu
##afoe
nade
##ewic
cnsh
evil
ols
##thường
yanbi
sẳn
##ayer
nacl
salvatore
lovely
hessen
##iye
##iche
create
##seo
##nor
kaua
notch
trent
##alco
actis
##erner
epi
dota
clash
ttkt
bukhar
yura
dries
tctt
##rahman
mura
ccl
pj
##beat
luks
iwak
##vb
##stry
kiễ
hcg
bates
##amora
lysa
##bw
tanya
##akura
iib
animal
##omax
đkd
install
##antara
##borne
##ovo
fonda
##adaro
##elinda
##calf
arte
##272
ons
##shida
##watt
baste
##tura
##uud
royale
jpa
1368
##oahu
bacon
##số
townsen
##nyi
canton
##rick
ulan
kelse
##partment
belfor
loves
rafe
mors
liber
##issa
##obody
##hdl
##ffon
asx
foo
dias
##rush
##atto
sidne
##stead
alab
catalog
##bđq
##tinho
##akhone
abida
jewel
globo
hanji
##chef
##kê
##iws
##elyn
##ments
##aminophen
##chith
##urit
##iablo
##centra
##sler
danub
##lanx
turbin
associate
stc
asgard
##berkistan
fleming
japonica
khashogg
kolkata
macrumor
osprey
paranorma
rajasthan
tokopedia
around
arshavin
nguoidu
milinkovi
toledo
blackjack
widget
alana
kommas
atr
##schaft
titov
##mesh
xncb
##toco
celeb
hubert
brende
vincen
jamaluddi
##toum
propylen
rowan
nghẽ
vuv
##rine
sgp
mta
##krasin
cord
portal
bihar
dane
penta
benci
##139
##gten
##uỳnh
##fele
##oebe
##tổng
180015
xingf
##ruc
dct
roong
pdc
kaiser
##mini
##ikaa
##rova
false
##kb
##oshenko
##avod
wait
hna
uij
cuôc
nhandan
pim
shaq
bey
##khta
##609
btgpm
pía
pgm
##rium
mý
##ưỡ
neural
##kết
usc
gơ
eta
agrico
sihanoukvill
wit
##esman
##want
##197
##hawk
##igme
##sonda
##itis
hoor
##fly
ferr
##enda
dasha
##pex
verna
laure
hđg
bala
burt
cour
##330
##assim
bone
studi
##shenko
tube
##kal
##bụ
##egge
##artre
##gregor
muraka
##319
icp
sún
##hoo
##adn
xta
##456
##hani
##bộ
##kovic
##aveo
##tea
##fei
##oitre
tep
lyra
kyong
##269
##nest
vinapa
3011
##atacha
mossa
eban
government
niantic
perkins
pouyue
retreat
solskj
villiers
competition
hasselb
snoop
powder
gddr
partnership
tchaikovsk
prometh
jammu
tatoo
maruti
murase
liberal
##ibert
niall
schiffer
unlock
1831
gumih
magdalen
##evedo
derrick
##lung
xuât
##rebren
fanny
fhd
##leman
reef
nathal
##romets
dadd
bello
linga
tanaka
đmc
ghoul
tepe
##ovir
##olotov
mansor
amme
cycling
balt
klf
aav
gaste
scala
dass
ives
##expo
##raille
##ehli
kiran
##astion
hid
##838
fpo
baiko
nbb
infanti
##orge
bek
stv
waters
##rford
1799
problem
none
finding
đmd
morit
hitch
gee
1786
##rancho
bj
saji
moshe
ueh
##phát
##utaro
starr
capa
salar
##elac
##135
##belle
##jung
##unov
##gsaw
gelb
vinasin
bigfoo
beats
##nay
##arella
varan
##ekka
essen
##rimeter
##nery
cạc
##yuba
##kara
##pia
saeng
##xpander
##recht
geoffr
stor
lois
tula
##cq
##haru
##ndall
ratana
richards
##hood
##limex
flow
simba
neva
chief
tren
##millan
##aputo
##akebe
##eki
vsf
marti
fanc
##eats
##elhof
quờ
##dri
uel
##mars
##bright
stevi
##đtct
##fico
##phong
crowe
hoản
cause
regis
skywalk
##yuan
##ood
##umho
##pard
hass
##esser
cavend
afi
##worm
##riffin
odd
valeria
kahilu
lieberman
phthalate
evgeny
chlamyd
stipe
teunis
castries
paragame
perseid
wendi
snake
dpv
movement
yucat
peele
vasili
chlorine
buchare
farhan
jio
rơle
bogle
soupha
atmos
afl
hib
raven
tj
##aiden
##road
woos
cobb
glt
timeline
##aut
desri
cement
delete
nicki
trending
##ivkov
really
##wacs
daiki
tailor
cio
parent
polit
boron
carri
ppm
##cone
liany
##aytek
##chak
afa
lets
chill
luyê
embra
##atex
##ioso
##songa
1442
##egawa
##002
mumi
##wise
cies
##vance
fcv
itd
ground
halima
##lio
kel
miki
luck
coffe
southwest
##kla
cere
nathanie
magna
angele
abbasi
##kumar
##erjee
heic
bullet
diao
colosse
energ
swe
rough
##samay
cass
##bland
##740
vct
##boss
ròn
shinin
finma
##saga
##ôk
##cns
##illier
##402
luv
1620
##evin
jag
adp
dodon
bray
##555
rcc
left
bulo
##blade
##lton
##vani
mesa
##trich
insa
##traction
##vme
##498
##color
##ror
constantin
trackpa
dbs
sian
##roth
##rawi
jso
automatic
##inton
bld
##arley
##abana
fisa
##chinhphu
##otta
ock
##kone
##harton
adc
##logi
##atrix
##therland
presid
fole
waco
anand
alpe
thẳn
1816
klo
##carme
robo
dovi
##bokov
##xere
jeanni
##ksndtc
futuris
##vienne
slo
bard
##tsev
##mood
##gai
##lomon
##rra
jorg
##state
##batdongsan
capecitabin
qũy
soundcloud
alphons
bureau
midcap
refresh
pietro
formula
cayetan
##chet
hobbit
tursuno
ampli
mobileye
exup
hiyou
jabal
kenji
subramania
beguil
mansion
esim
adsl
whec
anglo
pornpe
facts
##naire
unique
fuel
bohemian
piot
##konen
##lund
qlbv
ndh
batê
mahat
ricin
rsv
adventures
truck
##ege
tbr
nickla
##eaux
amos
madam
beam
##series
lvc
##115
##novel
salas
moment
ster
rent
thoidai
##liga
##ando
hlg
pilate
agf
##simex
farr
1879
##451
hrc
psc
##oye
##helia
bruge
goose
kry
##haodi
mop
##maria
brick
maki
sien
##dina
##hnar
2560
dq
##dao
gorma
##eila
##pacer
lunar
##mét
##agher
##eandre
##nedu
pixi
grabike
##imei
leso
hlt
busch
thongla
##213
tks
##otif
hosti
dri
##1888
iher
##utella
##lcd
##sisto
##ksh
##enalo
kago
##vong
cutron
saxo
amr
inki
##amove
satan
##cvl
fame
novi
##angan
##hawee
##alea
normal
dare
jis
##office
##taek
##nature
##181
braga
muaban
1809
##siya
1469
##areck
niki
##720
##atria
##dj
##blanca
reno
##dpe
sbb
erc
rever
shy
##tang
jessi
##ayashi
odin
##ẳn
##ejeon
komur
nights
##356
##agos
##208
##eague
bubble
calciomercat
pertiw
piccion
pricewaterhouse
rajapaks
ryacud
gylf
rhapsod
##accessibility
dubrov
unicorn
lightweight
captiva
ttgsnh
convention
ripley
steak
##harlem
fotune
somyo
carolyn
domenic
heidel
oxygen
khabarov
abys
##jie
norad
bastian
unsc
aureu
confident
##rut
mladenov
luts
rvv
##òn
rights
hakim
haw
##hour
##allo
morel
##alton
reina
amphetamine
khairul
##kiko
##phải
tgv
jais
##skin
##vita
##camp
vva
issue
phys
yala
scor
##ptb
##simo
##sfom
brod
lott
morta
##skas
volody
##ramp
##idan
##tsumi
##dani
##volet
foreigner
jese
hasm
##cpc
##gard
rị
infor
mủn
axeti
##eret
myong
##eum
4500
##iello
##atum
cadie
##quo
dodd
##gami
##ilian
1836
billion
##hora
##edd
##tet
1509
karr
1869
apc
##1826
inte
##hack
bess
##nkov
bilic
xmp
poe
doanhnhan
silvera
aoe
##tsq
upp
##elmen
##arue
##uder
##unny
##usco
reach
kare
##kalam
##channel
##jic
##lyne
shiha
kien
##ified
##dwick
##ynov
##next
mio
##miner
##đdc
##btc
##rion
void
been
##athorn
mirin
silvi
iko
srôn
##hmas
jh
##hoff
##drc
0912
administrati
amusing
geyser
hussain
surround
yevgeny
ilyin
maximilian
inquir
clapper
fiction
fonsec
nurburg
weekend
##sightings
hennessey
shakur
pencil
birkin
eintrac
##prising
pearce
angry
yeung
abenomic
##yov
firt
perris
##idyar
glide
compani
##enhof
puddin
##gfk
##ilda
caspi
reboo
marrake
##isico
paws
soong
agricultur
##sup
##fou
##fortress
lighting
futa
##elaine
joc
##atanla
korol
##touch
##ledis
sey
##vue
marble
kaid
gabi
morin
ajit
1876
##step
kose
hydra
##stu
ntc
borac
##bjj
beech
##556
##ossen
1627
##143
octavia
jura
kondo
jha
0983
##bani
##axon
ghos
##cash
pino
hashim
##thì
keir
clive
alger
juda
##table
##oriano
##itel
##290
##emina
brahma
0904
##odiac
##ranee
##pine
mist
##italia
##essence
##heuer
obian
viper
##guet
pry
##dell
permi
##266
kanu
##verne
##ngõ
##nagar
##foam
ktl
kode
1259
##vine
marg
borge
brands
ncp
##lley
buf
fry
nnư
mooy
##366
##ules
lamb
##unku
wig
##lash
##enk
##776
##norr
##mpa
isac
pacifica
##ilon
0013
##eme
1216
tré
##ongsan
chick
##634
ivor
sugi
arsa
bsck
aiba
##bitda
hpc
diem
qhx
jihy
##wagen
agif
fari
##133
##ttie
renta
##astille
gull
frans
##cak
vinate
eder
mcdona
rank
3411
rear
srt
amph
##southernbank
lik
##odran
##ddeutsche
buddha
groysma
helicopter
koepka
odisha
thrive
boulder
mathematic
exclusi
gestap
krishna
saraqe
steinfeld
arctic
mavro
isaia
htqt
##ergie
legendary
bogey
hateco
tuborg
influencer
coentr
scream
pallet
##lvio
crane
yaku
sommer
kappa
##nsure
##khov
##ochka
##741
scientist
concours
mda
finger
1822
career
diplom
irs
klia
##reform
gambia
bela
##self
elias
jaafar
##hring
hublo
##divine
##image
yoho
##guardia
taek
##lide
pms
##asque
##wak
##erta
##gogo
gein
fes
boyk
##bdtt
##agent
marr
student
massou
##gir
gwan
diges
1117
beal
1851
##ilis
mallo
##anco
func
##ees
##erian
hungari
hieu
entertai
##erala
##amma
##eepro
refu
isoflavone
##otis
fiap
gale
##elda
umm
spg
##ians
nexo
ravi
##wati
psi
##pod
lub
##ypd
yase
keen
crack
nitrate
mckinn
inno
apk
##116
decor
macca
welt
tnl
##asik
sanam
saku
##nida
tronic
##uasc
skyfal
iip
##ador
teg
carras
##nhandan
almag
##gayo
tumbl
##evade
##apter
witt
##deh
bdc
bony
pét
##đại
##703
dowd
kuro
##onecoin
moret
##pectin
cabr
genie
balan
##feng
##xnk
2200
bhar
angus
chlor
learn
teguci
##rivaddhanaprabha
anthocyanin
blossom
clyde
elitedispl
intruder
restaurant
riboflavin
soldier
squawk
tasnim
theguardian
usmanov
vietracimex
socotra
chinook
hasting
beacon
hittite
tonkin
##equila
highway
maitland
hefa
klins
setup
enso
nsaid
hisa
mems
strategic
##skiy
đôlôm
watchos
##sser
ferreir
greater
boley
dợ
xtơ
châte
##aeun
imran
cancu
abdulla
##avage
takashima
##cephal
npp
abby
##stance
castell
##plank
poir
baskin
norte
niles
cantor
titi
##esia
##eitc
utilit
large
##209
michelangel
dak
##gườ
iberia
##rawan
##shkin
wadi
gatot
landau
0902
ede
##ignan
listen
vca
sone
imam
stunt
ymc
1828
##anial
colle
##adakh
##lak
bta
##chua
leno
##riêng
##binh
##race
mako
gto
batu
##wais
1832
##gaba
hooi
hahn
1203
pec
mahn
##hotel
##genic
varel
fot
bridges
##sena
1166
##arena
##voli
lobby
##itgo
exp
rider
aji
kir
moc
##jave
##rung
##525
##744
rye
punch
##ufj
##ipper
##soo
gaspar
##rimo
demetrio
##akash
print
##aidi
##scape
##hotspot
koll
1845
##huong
##maga
##ations
dato
catal
pereri
kenton
##fresh
##199
##mà
nmd
##217
mj
1815
singapo
##mulan
##idget
##rasm
bock
##sif
##stor
bree
##inpe
pira
berne
yard
##anifa
##yavong
##rowit
raik
##rpk
eck
coinhi
##athy
##inghe
##linh
tcp
##ashvili
use
pyi
osen
##brand
corse
##151
yap
usaf
##hound
daw
##buri
3600
##ốk
myanma
##958
##nsylvania
##script
##elnitsk
chelyabin
glucid
suvarnabhum
wrestling
horror
vajiralongko
bashir
logicstic
patrik
primorsky
levitan
sampras
invict
speech
abidj
ababa
overbook
##rgill
sulfur
##biid
##fjord
##metric
smartbox
pramu
dogg
hummer
##abri
bonham
koran
motorcycles
90999
##astrid
mms
4194
##lent
ory
rahim
herve
yester
garment
dios
dupont
să
teodor
polly
ings
vata
wheeler
wien
cttt
##aky
qủa
yj
tirana
wif
curve
##mpel
##enere
1803
##sexual
dinamo
doroth
manse
diê
byd
prior
jinse
crayo
##ambro
barney
##orphine
##antine
##encel
nuclea
sys
contract
goran
guen
leoncin
epo
0988
##jd
##ofer
##390
##huo
compass
teach
##vé
hca
frog
aura
lose
shg
##west
lona
kaliclori
##tháng
says
fail
neuron
##tơr
llp
mimo
##epe
##tip
koma
gere
##ribe
##ermind
healthy
##abalan
##đtc
##729
headline
vass
alphag
##dien
albi
##mmol
##flow
##bowl
altai
load
##bhb
misu
##ewell
##675
shimo
rhi
##nct
1824
1516
kafr
##tala
##racio
mư
novala
##184
tags
##tko
##ellis
##uick
##saf
##119
##logram
##uome
##herme
hurle
##ilham
##launch
sba
##unter
##wong
##flick
##168
terri
eus
##kqt
gươ
##onte
hosp
msd
kalug
##idge
##lodge
birds
##rnberg
ska
##oyne
##amata
physic
garc
##iggs
##estino
billing
##clc
achille
buran
3300
gsk
nagar
dav
##hotra
suburb
##guero
##tinction
carscoop
recovery
triangle
collective
dukakis
hasaka
phenformin
preventi
register
minneap
wichit
would
punta
tattoo
nqlt
warwick
jumbo
bookmark
initia
holograph
indira
hutchins
##ewol
##rrle
callej
kubo
ehren
goddar
fever
nikla
kcab
madridista
elnen
oca
seongju
hamdan
yasin
cđgd
cura
fiske
term
dando
mattia
klgđ
##crof
avon
##sum
konya
##jeev
##halal
cheek
bvq
adib
##pkins
##ptbv
quds
welch
eis
lcg
##maraj
saving
barton
##lynn
kosmo
1280
##otoxin
##naga
##ulia
##adies
sye
shaile
##15189
##383
reis
##eev
andra
##serve
constr
yeom
hermin
##ogu
synne
tetsu
outsourc
turch
##kur
knights
##inus
fluorid
nehr
##155
kochi
##suda
##eefe
wald
avast
mcbook
scorp
fel
damas
carpi
sensi
##oyoung
sungho
seque
##nori
##oubi
##awad
csvc
koro
guild
pts
##icky
##dwell
##ronnie
##assis
rothe
mendel
##lose
kyat
chew
##420
pale
eger
lek
morav
kerch
##yakov
##ắn
##kbv
vhg
##arna
slave
##ouille
##istine
hamidi
##agma
limber
##skov
tips
burgo
##drama
gía
đkt
1792
kist
##arma
##211
##dwina
draw
maliki
##jek
##diep
1842
pill
goes
##samco
##762
benton
##adil
##874
shekha
harrel
echi
eko
prens
ailee
1801
##essen
##andara
##ovlev
manus
payet
2496
##eld
nuri
graf
##1661
latina
lacta
cooke
##akarta
yeh
##780
##usuf
stf
akrapovi
caribê
cheesecake
corinthian
jakob
radcliff
raspberry
replicant
methodist
virgo
autonom
ewec
interactive
jubei
catechin
espino
tetsuji
nafiqa
95395
appota
##kon
hendri
vinainco
asgardia
bulletin
vpđk
portuga
##ugiar
nyq
tarnow
flander
millenniu
##euben
geogr
miniso
icj
turchin
hgv
2045
orchar
quora
##collum
##xahoi
lieb
##tulin
##ryami
dhoh
sudok
saipan
intern
furut
##caleb
junichi
amanote
cptm
##avakov
##ovogra
castrol
tvos
satrafood
checkin
nava
sulfat
sarawa
##vna
dimas
mare
juanm
dlr
uci
##ddi
shinse
##otul
rinra
nacion
##nham
skill
##601
bandoc
thanks
bonsa
##korn
##eana
##drop
kito
##ầng
asam
##roos
saigonre
perak
##olbert
##paper
turki
kira
##selle
##omen
guru
nws
##249
vsh
volk
albu
sylvia
##hđc
##battist
##lnx
hunting
##ouma
##enchai
##bacal
##adol
##henko
##uffe
wh
##arlton
faces
##ibrand
sli
##illian
##potting
augustin
1212
##fur
crowd
##wh
##adus
##uche
##mug
##voir
vvt
parisien
##teuk
lok
##yasu
##inc
##pheres
humber
##how
##irim
##asser
cats
##đó
##yers
sada
kac
##anovic
##oth
##đông
done
##ucla
##ulum
##rofl
##thip
nok
##sui
##voy
massa
vptt
##prox
##pap
##weil
##oai
kant
##eckard
boho
1340
pellegri
##gawa
mulsan
##action
##ined
giga
heck
##erty
marí
dove
##hcsn
##cosa
csg
##ereka
hmeymi
psu
##valier
##ody
assassin
bunyodko
hogwart
livetream
psychology
semiconductor
##lippi
aspartam
atropin
đspl
teambuild
thườn
favour
dixon
miyako
random
##hash
divide
ngằn
interstella
primor
macqua
vltk
jensen
wass
srilan
bergen
progestin
##wiak
agera
hema
##vodopa
yokot
##jesh
colgate
kraft
jojo
##ovation
romantic
paster
##ancome
gwang
##trek
bandit
vito
denise
##rowse
##rinkle
tbc
btht
##umab
koke
##dspt
klu
##nttx
slack
##uksa
tccs
##oeic
##857
yat
##epf
##lift
vece
jafar
rhod
parana
##mitar
##iegel
1750
salina
##260
việ
##hwan
##homes
wco
keller
noc
horm
kalini
##quet
axa
rimas
##eind
##take
parej
##uper
sớt
##rese
##meier
yuka
##834
bille
##oeun
##eaves
##561
##etia
acru
##488
furth
irr
##eath
sdn
aqa
seas
yuna
##lles
##iarc
olam
hự
tls
##nect
gud
acbs
ryun
worker
##anol
##ndvn
##ashimi
phosphor
lewinsk
hava
melak
ubh
icom
##176
comed
##kdf
xls
##crest
##aere
##còn
peroxid
##aise
##locker
fina
ucs
icu
##olito
##repe
midland
dsc
##jiang
holi
##xtan
lega
ince
##612
##kina
##silk
lucen
leye
##ppan
pow
##hud
iwa
##389
##journal
##dron
##peace
fassbe
pvv
drl
month
##ubi
kidd
##chik
chandra
iaf
##ìn
##bag
##fran
dany
##rade
bvv
##korea
##luit
##puchia
shou
farah
prem
krone
felt
fuga
##ianis
##0201
nhẫ
##lsk
susu
1017
##177
nobuhi
schneiderl
bulgari
##174
gđv
lenno
labou
##lsh
##mene
klg
##estas
##rnet
feat
##drome
##antha
cunningham
daughter
dianping
misérable
morabito
oreshkin
qarabag
shipyard
solntsev
terabyte
vietmedica
nchmf
podcast
vikramadit
đcstq
matsuyama
calendar
aegea
flumine
cliff
naypyi
kanagawa
bluff
kathry
gogol
anglin
koike
uvtw
kostyu
vietcom
odi
makna
hhhvvn
hoăc
measure
kalu
emotion
popeye
kyiv
sado
ayala
rimac
amour
closer
painting
epik
istock
pulp
rené
hđcdgsn
kohler
rolf
##casp
perse
floor
##ldpr
extende
napal
sharan
constantino
flanner
##427
purna
##lled
lori
longhorn
##cả
korn
2900
borey
0919
operations
proct
seym
##eisenberg
morphin
armie
matsuda
2032
loop
##hant
##950
sprinter
##taine
phongsal
alf
##yono
##jen
##bcđ
fgf
##tyana
##thia
##ndash
fleis
jour
sonos
##156
pỉn
##ushman
htk
tamara
##engkham
mgi
##booker
mamam
##eless
##bjc
##tune
##038
##corn
picot
grade
leona
##load
##kill
sendo
krona
##sese
##rav
##heart
##mea
##yak
##lchai
nei
kood
medell
##nkt
##achin
aas
singha
##elho
buter
sif
##raja
##thegioi
bassa
##fiona
lith
kush
vaooooooo
##shar
##nari
##esca
##297
thru
##roj
sqn
opti
bula
##xiang
##ckerman
##dcnd
##ross
hđx
minister
##hane
taec
##antir
taron
valeri
##taxi
dien
##afir
import
montag
pica
kuai
##amadou
jax
perr
vittori
##geti
jule
btcd
##chỉ
jed
3014
##hxt
ignac
##horse
##alora
nose
chloro
pé
nw
##eel
##ringen
1875
##486
##uôc
tambo
##980
##stagram
##982
##year
geek
toon
##ruck
fuen
##rud
petal
##laue
##nner
##emar
koshi
##sek
##789
turke
plr
##habarov
polyeste
##xtreme
imagin
behavior
calabria
contempora
ohmni
tetracyclin
cinemascore
dimsum
protocol
workstation
##corporate
fleet
hellcat
chiangmai
viphavan
backdoor
byrne
yalta
neptun
radja
indigo
##eclerc
freddy
avram
anatoli
##rmansk
bharat
smartcity
chekhov
huhu
##gapore
nestor
joiner
demille
90605
##terios
kurata
agnes
hogg
clipper
sebastie
beatri
falko
craven
haneda
pilip
##dajo
tapchi
wheat
mikael
##abalet
megaton
jeremi
scholar
turkey
##ucru
##hiko
photographer
##annibal
teruh
lienviet
0165
animation
vbm
xdrive
clever
monk
##996
giovan
romano
##ttawu
##kava
streptococc
garb
##dalgo
karat
1607
##jian
0989
dyer
soto
1644
fso
dry
russ
##lead
litera
nef
amigo
##essco
connell
spru
cary
##etrograd
##erol
##iege
##fol
ttht
##nôn
milky
vef
sunan
apac
arkad
##ellie
##tellar
##flute
marott
terre
##told
sgn
jea
gof
##wel
##chari
henna
##hip
dray
##aravan
bokas
patt
ransom
nero
##omba
##illow
smr
aerospa
barre
##urlan
guede
##baum
##part
seria
pixels
pain
##kes
fcb
adama
rahm
fushi
1369
1090
fpi
nstp
##amp
thuâ
##nesda
##vich
prep
tall
##gst
scher
baptista
reds
ctmt
##chau
##alla
pond
teeras
##ipat
##vette
##rôn
##rpc
metropoli
pelle
nihon
##avy
caprile
##ewb
##position
##swell
abram
bourb
smit
idr
1279
##quả
##spec
qtc
##bed
##9440
unha
schafe
##houba
##mathan
hoạc
##lex
shafi
caraca
chery
thae
afs
##ande
reiss
##1100
##ofman
##byt
##cj
##turbo
##black
##bud
##afari
nebu
omg
1250
gayle
##lorua
nobu
##bey
manta
##784
chance
##apong
##jing
varg
##dwt
##195
##tyt
##nut
verita
ibst
welle
##achten
##beth
alta
puk
jodi
##gou
pq
bogdan
humi
##essori
##erbil
##fus
##ihan
##sibirsk
kolo
silica
##rub
1651
##othuat
celebrity
cumargold
enhance
hurriyet
mcavoy
pruit
response
verkhovna
aberdeen
ancient
qúa
bonaventur
method
oddity
ballantine
regular
lomono
salyu
##xanthin
fresn
shugar
munster
wannacrypt
lighthouse
commission
75386
growler
empori
gmeine
desire
apfs
edtech
keyssa
begin
bensley
guoqi
misra
persian
woraw
course
tbsl
marshal
##1600
kavana
trusted
##nsley
yafe
ferrand
##euser
##arrie
##abdulrahman
tttd
xyla
asio
consado
##lichy
cryonic
rainer
bianco
##reacher
bacsi
july
gulna
##onass
wheels
saen
##ủy
raffaell
##bun
translate
##esha
wasser
donut
khaw
##emand
##thal
baloch
fif
inver
mcqu
##boro
matild
qlcl
autobiograph
homer
flu
dutt
##arofi
holder
isma
nextte
##uanov
mahind
planets
ggg
##shere
tubin
##cala
##ltv
##otrade
##rasov
##diya
##eic
mex
##neas
damie
nix
##onin
##763
string
kdm
lone
8800
2102
univ
layla
##rico
noir
garmi
##aryl
baga
haruk
##tung
##hộ
##aramel
wewor
##lj
skif
##boat
##mare
mukh
belly
marci
msme
##399
nntn
vienne
##pvc
manito
takahi
tuv
##890
olympiac
issa
##787
##ilash
##ullina
krato
engel
vad
##rington
##đls
hed
twent
bnc
1791
##aret
##phú
##isteria
##rillo
frontal
chuong
##chkov
##olong
##oà
##rno
brow
##ũi
4900
aces
##jeune
##ures
##qian
##citi
##226
crab
##ostro
rq
wek
scn
##olaris
##unger
talc
fee
##nhưng
kille
lix
ktxd
##xxxx
assis
agn
abed
jagge
##qr
##656
liwa
##byte
##bandoc
plu
grim
día
##vhnt
##daf
safa
plây
##einberg
##bagh
kalam
##hiller
##ullen
edmon
parra
##398
##edan
##373
robins
##block
graph
##ckh
##ormes
lian
ebr
tlt
##uffalo
##bride
##itanium
oag
##leshi
##elmer
barracuda
bonapart
corticosteroid
endeavour
falkland
gravity
nươc
polypropylen
polytechnic
quercetin
sulawesi
menthol
scotia
scriven
veracr
harrods
đvsn
moistur
poweredge
##erodua
cbgv
itsara
micromet
cntravele
francia
bucher
tccsđ
willow
milton
margie
burning
đxt
byrd
lectin
gatlin
glow
xề
crisis
maasa
christia
corner
catt
tanisuga
kassar
fentany
vedo
smash
pwm
##diphar
##hush
buckle
tnnd
soler
bagg
thuduc
droid
##dose
##buds
##ause
##denberg
##yotr
##tuổi
airs
buster
##dự
jve
stru
charger
baoviet
hirota
karaba
##qing
##kbt
bamba
##elain
nln
côte
ươ
vinaco
leave
##hue
##omega
sambi
avr
##lof
1829
##panya
##monium
##ltđ
dhani
aap
##ification
##angwon
barbe
##sali
daero
grimm
dragan
##urkov
##hơn
romain
ricci
jaeger
##reece
##aryana
given
##460
hally
sooc
##quier
morron
remy
2300
told
##tors
##kyla
##aeyeon
##east
aro
lxa
keeper
##nals
kunis
##oumar
##nhân
novag
##aipa
10000
wad
ntl
##cùng
##vecom
1077
##bwe
##sđn
##bart
clar
linde
armin
trish
0932
##lope
sdc
##customs
##ascent
##kop
wilde
matia
##saeng
trucks
cheer
sida
##taco
##nadine
haris
icap
ato
##iran
##clinical
##607
giớ
##chale
octa
##cular
marks
vma
frau
##arcello
nuno
avc
##rston
##adis
##aroon
##ooper
##girls
##mount
##holic
##asil
inet
tigri
imx
sabra
paw
##hnev
bench
##cab
##anski
myr
##marathon
##globe
carava
aam
##sound
hind
##lbul
1350
xom
##kyung
crash
##acier
mashha
##ốn
##lơ
##đun
nghế
melamin
##pore
##629
##adasa
mirama
vigor
##ỡn
##1862
##than
banff
##mitrovic
##481
##1709
aru
##prep
##kies
##sdc
mccullo
1517
##free
pali
kenh
##thier
##angui
##erney
quắn
##respo
guerre
guadal
assessment
benefit
delivery
eclipse
fethulla
gabbiad
heechul
kilimanj
knowledge
metacritic
salicyli
untitle
yahya
fragile
huflit
weidman
ammonia
capsai
##duction
##lkien
disable
niasse
sennhei
94628
undertaker
nissin
cedar
daehan
stethe
phununews
postcard
freelancer
ombre
stl
enable
getting
##eguara
##lại
platon
socket
cyanide
feb
##hoorn
newborn
ijc
varian
plugin
combat
latest
heracle
eich
##nhận
##bull
polansk
passi
##giang
nakhod
bobo
vandersl
##ngada
##hcv
reim
##960
chiku
##287
##adipo
vnpay
grip
glover
peck
skills
kitts
##stem
cellulose
##éne
pipp
##carage
##ahab
##riah
##luk
##estadio
tlv
pair
vitor
roach
##ores
wilma
copac
##inigo
##denali
##dreamworks
gad
aina
pouche
##cbs
##vere
2831
cookies
##cung
##cola
narayana
kirb
ttkn
moise
##matt
chiuri
automati
##1166
##bain
##lup
##fef
valli
##ollie
##thế
shau
##ulsar
philipin
##itting
##lama
##yari
##760
kado
##biles
koko
##essel
##strat
##qlnn
##garden
haas
##soul
georgi
##karn
##599
##ndra
##akana
beit
##1873
tid
cms
near
geller
mccla
##seek
##amish
perf
joshi
##abung
tote
avne
##rien
##avril
##438
feli
##koye
##kiddy
villar
##arge
schn
##đầu
##ennis
fms
##odine
gallo
##cdn
##aujo
tccn
indochine
cardig
##tttl
asu
##andra
swim
dru
vicen
chord
pix
riches
vaooo
##ậc
turk
##chip
montre
dall
##479
saver
##akon
céli
##berman
##rwe
##jani
jisu
##pak
##andex
1040
sld
##đẹp
sêr
##899
amri
##keting
##660
bruns
kret
gilla
##mayev
##rar
##pbe
##phia
lanta
##enheim
##tiles
ampa
##asr
lpi
##613
poha
federal
##gyp
trevi
##cloud
##sản
##security
##kitaro
vod
##factor
0510
sps
lust
cih
##độc
publish
##vcd
bootlo
##nilon
ruh
wim
##íc
sento
smil
##ởn
sts
dashi
micron
nds
##eeding
whe
bere
##lal
lager
lato
panta
lugo
mada
lướ
vallet
hutchi
alkaloid
antóni
cephalosporin
erdem
expendable
iglesia
implant
jawaharla
natgeo
swimsuit
teixeir
cultural
estrella
alcaloi
arrival
diemthi
translation
pymepha
adebayo
gorbat
muriel
buchana
headphone
youtu
wechoi
decima
podium
##ckvar
hđkt
amply
bỗ
jestar
khoahoc
kwai
##atjana
shepard
catena
gerhard
##nigma
guest
##ále
##basketball
sapta
mercer
input
prison
bianca
harbor
element
eurosport
bcsđ
tunis
attap
marvin
shaar
##acaca
vtvgo
teher
archer
brody
##sula
tonle
mitten
cullina
jti
sehc
##jel
bouch
sell
talim
1710
assa
stuff
yurk
shaab
##esol
##thon
tawan
tears
estudi
citrin
ntn
##owet
marit
meru
ipx
dast
valde
##rismo
##catel
cbtt
##nance
##anyang
trạ
sdk
mrc
fav
grigg
viisa
minor
pif
ttcs
fillet
munch
packer
##elec
miso
##asuna
##rram
aksha
swin
##athro
bower
##sima
##avis
##ucker
##386
##eading
takag
##kistan
##score
##masaka
##288
pust
ign
calte
##arago
##tkd
elip
3105
hidek
##điều
##phin
asie
##sonic
##odes
bata
oly
sdp
moya
ddb
doj
ầ
bucc
##made
##kaew
nomad
##panos
pais
##rge
rta
##tyl
graff
marches
##done
##ingen
tuna
npo
oie
boum
cherish
merri
##adeco
mullin
##erino
padd
specialt
##atly
##ignon
yoh
##lott
ecoli
acr
##ndme
1560
##sex
monch
##relle
##638
reine
##angdon
##rabaya
##reich
##127
##wings
hemi
##auser
songdo
kaij
mcgra
lilia
kolla
##vov
##fel
##borra
##geba
##onghae
karin
tver
##ceres
##ades
vinamoto
##ukur
quint
##illane
grill
laurie
##arker
boga
anninhth
##stal
vern
bento
##apple
##vub
##father
##shield
##speed
masr
##lywood
##buque
##medes
##esan
##avanh
umn
##ossip
##venture
##bots
##baly
##ffel
##tdb
##atui
##nuts
##cnn
##gbia
fond
chere
##ancing
hihi
moms
linen
##senjo
##bec
strategi
##trước
javel
dopamin
##osphoru
##adrino
erich
pininfari
tensor
berberi
corleone
fyodor
hymalaya
invisible
libertador
lorthol
newfoundland
offering
opinion
rudsko
strijd
thresher
élyseé
balague
ciudad
schilling
spellbound
tarantul
##smati
ruptl
pyjama
scroll
shortcut
terror
minutes
survey
telesale
strength
hammad
regional
mercado
siegfri
buddy
kanji
sidecar
suleiman
##randa
elastin
nasib
kutu
ubqg
macpherson
gabby
newsfeed
roxann
##allack
toky
belong
konrad
vuong
deci
yoy
malmstro
alias
##440
velik
shack
cellul
youku
liver
thesun
nagorn
piet
##mpos
sufi
priyank
1827
ends
8890
ashoka
##gsql
weng
plov
##thủ
armor
bsl
1821
gros
shn
serra
norwe
bktt
##ioff
forema
huyê
##tunga
robocop
shaye
walloni
##fka
##rden
shul
acetyl
lipic
##othy
parde
fabri
##phuong
##phet
vars
hearts
0169
bgd
##làm
##anos
##09191
mansa
##agong
featur
syri
##bien
leak
##khoa
##tella
malin
##ilen
else
##netti
yew
##awy
vivu
catw
##ured
##lok
##vcbf
wl
maas
##xes
##leigh
upper
##cnmt
constant
##ckers
##arapan
cig
##ambe
haag
lieu
##837
##329
##eeks
##670
##ớng
##rose
##taw
gema
itar
##llis
labor
##ringer
##9119
catch
##udwe
eba
##eyin
##etya
ukr
chlo
sherpa
cirqu
##704
winte
rodger
##accu
dcar
##lavan
nune
repo
##saw
teenage
##national
bhp
vuôn
##thptqg
##136
##botk
julien
saito
weapon
lipo
voron
kuan
##acetic
##ẫ
swai
sggpo
debi
##ubal
##mec
fahi
nghể
1290
hj
xọ
enric
movi
##ubr
##hear
padding
martyn
##joo
##hnik
##uyama
impre
##oảng
loui
cvs
##teachers
neura
tate
##707
svh
##dnt
kios
##content
##magne
send
##510
##atri
kele
##iante
tide
##burgund
panett
sanke
##alwa
aster
##sự
knu
kami
lolli
##ummi
##alin
##nhadep
##angshin
##okpa
##uly
schmid
##phim
dans
sunspa
ids
neck
##edved
ccv
##579
1374
pero
##bj
chuôn
yarmo
##ionee
antwerp
boredpanda
climate
combistress
condensat
corsica
esquire
junquera
lipoprotein
magellan
manucian
nefertiti
polycarbonat
svalbard
syndrome
theerathon
vasanthapiri
distribut
lionsgate
tunnel
blige
joveti
mivec
norris
kiriko
93799
chennai
psycho
kouli
apocaly
dali
microgram
malmie
harriet
sxtm
shuttle
attapeu
senior
##odin
##aink
cirp
xoè
mailinh
06923
manage
vietnambi
tampine
sccp
##781
globalg
##habibulla
thinking
susse
ecc
barkha
flake
flipk
friede
ppa
soufa
detail
##dahl
radon
marwi
##achai
sds
banega
##589
##umji
##gow
savanna
##réal
##indy
##keo
ilia
##enton
##nmu
pretori
##eir
mél
sopha
engineer
rtb
juns
fnc
inui
##769
dhm
đtpt
osan
kto
##ilde
dumb
capella
##984
##agata
##asker
##mael
##rotic
##chienne
##6691
0935
ein
##fall
##utsu
kraus
indy
##acchi
roks
##vone
koon
shichi
usag
sector
macer
akramjo
##rshkov
0918
##ennan
surge
pour
nurdi
mons
brut
hendricks
##riff
tianji
##quer
##mongkol
##akita
##phút
##acne
##eely
jayne
đtth
hernan
##agile
##ganic
##olson
jamal
aibo
##uble
pamp
7210
##aqan
##tail
##889
teuk
jarvi
##intra
capel
geng
##kurs
##869
##ivian
interna
kicker
bato
gpp
blanca
##384
##137
##etsmart
##ndless
1783
bễ
nđtc
label
##esto
##ober
##dware
##rimes
##vsky
##413
ptl
kola
vls
starke
##stag
sfc
porta
##esly
##orbis
##yint
##rfan
##iffe
rosale
udon
4207
##ustin
##uland
##ettin
##lario
3800
##oxid
##labrad
chapel
##kle
##vd
##khla
##dfb
##erbank
maw
baron
##estrin
ffa
baik
##880
##digital
##square
##build
##loon
##ragon
ftu
##kcal
##436
fels
##cooper
##sudan
safi
##urgo
##hole
rubic
##oline
##lidia
huff
##khar
##beu
lavand
##arden
gole
##uren
hoso
maku
##moly
moj
##sakse
airpod
##jour
##416
##omas
sonde
mcman
acryl
dignity
enggartia
guadagn
gutierre
jyoti
popsocket
principal
sinlavong
surovikin
vigilan
vàooooo
esquit
rhys
5234010
headset
different
thunderbird
cinematic
deakin
warrant
thought
ulchi
retinoid
boyfriend
naught
##ometer
yabl
dnepr
shwe
tablo
fansign
flamenc
##dkins
curse
benthanh
janu
peek
apply
ktgs
muhamad
manushi
turks
teja
leary
guido
solanin
##anxi
tuft
##attention
##ietam
schick
##neitr
chimera
enrich
vuji
salama
chatham
byun
gabor
9556
dendro
fuco
##para
simila
##rike
castilla
turnover
##scher
fadel
##rvana
##akulin
join
bashko
cope
domingo
joli
kno
kington
avto
xplay
paro
eunju
##ndidi
đbs
bera
jod
##avet
##joon
1225
dht
weil
finis
2031
##oup
1878
##deep
1428
##asir
##riona
ore
##328
mbn
gaon
rieng
##178
##339
2668
2600
dresse
##rundi
honest
primer
acnes
##smann
sumit
##woofer
##iae
##ydric
nbs
blink
pmd
##433
##caf
##info
##ancur
##ashkar
sabal
chiri
arga
enda
bate
aceton
##wash
##oush
##ugu
##277
savast
##fiore
soyou
kroen
keb
asr
##kinh
meir
viwase
barba
##rgb
2118
pít
wool
qbs
suju
##afre
2800
gyo
##ecino
##bab
##imov
bvxa
iod
bbg
fonte
##naldo
asma
makar
nari
ayr
viwas
alumina
##kett
##434
poul
0166
##olgate
whip
##shiro
##govern
##photos
##lastic
amant
##ulus
rollin
##nashi
comes
##bass
animals
##jj
xuka
##2079
boil
brahman
fj
bernardin
##000000
naji
spect
liv
cib
weir
buch
##urry
cyclo
##eker
giulia
##geon
marry
hawai
##malaysia
##ằ
lif
sươ
1793
##hik
##địa
##thể
##điểm
jetsu
##radio
rousse
exim
##oath
estell
##việc
##olk
##seong
dieu
marques
##elik
ivc
##steras
##liant
##dhya
lucie
##giao
##đv
pót
##haya
##ahari
premi
sudic
##edder
arbau
##7000
vario
##hamkhan
benin
pave
saeb
neuman
gyun
##rolin
gath
advoca
##etel
##ulani
balakrishna
cibulkov
dreyfus
emperor
jemima
kanharit
lebens
municipal
oluf
superbrother
suspicio
ukroboronpro
helicobacter
resident
theatre
wilhelm
continue
erythro
malefic
girard
dujarri
jokowi
license
ahmedabad
mcadam
hustle
okhot
chalerm
kawh
danxia
eureka
##pyramid
##ermatt
ldr
motorsport
please
vinata
sharia
##purple
##iphao
petty
scene
##gorod
jagiel
chhna
avery
harbin
chkqt
##vien
ceninves
##quangninh
##loss
##ranovska
broken
musician
##ird
ưdcn
##amip
manolo
##rega
##chụp
hedge
##rmore
##achary
legal
uac
##ssion
##nasugar
##anger
##upco
moting
##ramis
##657
##singer
##hino
crem
lila
##369
##cbl
galax
pee
##797
andree
hecker
ifo
ariêu
uberx
##ethe
elan
##amsc
##văn
sonca
ameri
##6763
clap
##1806
##janice
1676
nasu
alley
chantha
ifs
##nanan
##5451
##vẫn
##ikal
pcos
##cardo
đhkt
1771
ppt
##osic
toms
scola
##joku
##umala
goncal
##uôn
laika
customer
riche
##nstw
dorse
##sation
qiu
##ewsk
##upé
everi
##bow
baden
##xanh
musso
humbert
bromo
dejo
beas
boyd
curo
##nald
##quar
fris
##arano
rybo
maiko
goya
chiem
##770
##ixion
##vinas
##egg
##itage
lale
##vui
himba
##traco
weight
chẹ
##qcl
##ramie
##đường
##etnews
isoc
##revan
##2577
##839
piơ
##anuar
##pital
##rajan
##trex
siv
##chiro
##tenaa
mfc
##vle
luệ
fram
tole
hrd
3610
vietnampos
##ũn
##rnell
hre
##ubov
##guar
##aring
##chesky
munn
srs
##dđk
richar
##agger
##inocchi
##source
##buô
osa
ivoir
##casa
pde
##klak
plain
##794
cava
spell
chrom
yashi
dautu
amge
lokk
sainte
##cơ
##saku
##333
##ổn
sinb
vinp
juliana
lede
##agdal
klor
breit
haifa
##cue
triglycerid
ied
petti
##lion
hypo
##ỗng
uri
##four
1389
hachik
##387
##risto
##phương
##rida
belgi
##deux
noona
1234
0982
##010
siwa
clarin
##món
##good
tfi
ghad
rosett
khỏ
##nxd
bono
##own
##kada
iman
##larov
sheh
braxi
##aviar
forex
##entee
shay
##rij
tess
##asparov
advertis
autumn
breadwinner
brewster
criminal
guimara
hammarskjo
hirsch
milivojevi
potsdam
sheldon
soberano
swindler
telluride
vanderbilt
dioxit
nepcon
serebryan
copernic
greyhound
meteor
terengga
turkistan
5222020
should
clmv
##akaria
apparel
fatemi
doppel
vietking
hanoimoi
magneti
jaffa
centaur
tennys
jabra
casual
peder
hsie
genting
selig
##hraf
gcnđt
sgdck
haidi
cowork
frants
cđyt
biglia
abcnews
bernal
tohok
trouble
halibu
pfeif
could
khhg
fahad
bloomer
nongnghiep
hever
kinder
##llas
##natif
##aiyawat
##tally
##ough
tribe
darlow
##brc
unknown
greensp
sheen
tieudung
nars
wpp
gsts
vernon
krai
##igner
mitter
eeg
chellan
##pvbđ
afri
cumming
hennes
aae
##artan
gard
jú
finish
##aadha
joki
dangc
##intello
##obias
êli
katan
tbong
##loster
rcs
laurel
plit
##iente
levan
perla
##irna
##hasha
benj
##slđ
phillipp
asin
##966
##ampha
epp
##petya
##hburn
yuh
premiere
##abete
bouf
##helf
brigha
points
cert
0167
bjp
powersho
laj
sgs
giulian
##ittel
schip
litov
##adivi
able
##duba
garde
1255
##host
albumin
##hồ
revol
kuka
upc
##unas
huth
tuti
##bash
##lroy
##alter
busy
##phobi
ytd
##tostan
0985
tempo
##astic
##1080
##ène
##659
##rasan
giăm
##oderma
1637
##887
ilga
##eunji
nikol
bahn
glad
##avila
##ggi
valen
tcts
schuman
kalla
##moon
##call
##cure
fredri
##enara
jeis
##replay
phyto
##nboard
##jiva
##rried
##drich
##viv
canto
infos
##msar
##248
##hatinh
hashi
##efer
mfi
1511
##rachid
withing
##esper
sherif
morph
##pruks
##fill
##osna
phoon
keylogg
##lvey
##rur
##agall
##imiko
##263
commer
##google
##patrick
##dijk
##leaf
cqt
lemon
##tila
##nall
farag
poste
##forum
##mê
0945
##7025
moit
shares
##cmr
##ffee
##tkin
##bắc
topas
elf
##obie
gail
##corps
##sian
##paul
natas
##carb
cerr
##angshan
##lue
fink
##xott
##291
##164
##rith
grund
##himov
##ontai
##lct
puck
##vand
##ifix
motorcycle
##cles
breath
seagame
##mendi
##xdđsvh
aleksei
brahms
currenc
echeverri
fanxipan
gutíerre
kienthuc
kwangmyong
professor
stryker
themysc
whisper
footprint
mavika
porphyr
reggae
xoxo
bootcamp
kickstart
transmission
wojte
cocacola
integri
barents
gorsu
friendship
jiangsu
laminate
##olokol
mousse
phyllo
cassano
slimming
cadmiu
rattana
ugly
gandak
henning
remain
pyeonghwa
takeshima
##593
thurapa
soryu
akhmet
##derberg
nigue
##freight
eugèn
blackmore
amadeu
bifan
debt
reward
lepti
arsenic
libre
aego
gardin
vinare
badr
rober
docs
knp
clover
1777
##elis
pipe
statist
wanderer
serial
mosque
rocin
##sayas
meal
##định
yashin
arden
vncc
chuyen
funky
##angila
mandara
##đất
pedra
##agro
greif
##tours
anchor
##urance
##eraso
alca
##chanov
division
##enne
##edux
##nail
mighty
1308
slip
wissa
##phage
brca
lacost
##yber
myeong
##503
##track
ouki
yuju
abdi
##standing
carte
olaf
sere
amed
orman
##alaya
birk
becky
##chino
amore
##agner
kingsle
paha
garr
quill
kcht
decibe
dxo
tempe
##dales
##acs
nyk
##kind
spen
caj
perc
laco
##ueche
grieve
##142
##rfur
##ersys
srey
sole
gotha
driv
##rsa
daria
moti
liao
wardle
0977
##251
kya
projects
clair
##dvkt
2029
##boom
bitum
hick
##pole
##rator
##93018
##ixil
##833
livingston
##laven
quicken
kaur
##okator
##brecht
hako
##709
##ecraft
1701
vuelt
pache
##rfest
##rabon
cern
##ctd
fact
piro
dyn
##smart
##alopa
##ossack
##528
##carrier
mund
##588
nù
phones
pili
luan
##lloway
##yster
##libert
qbb
2105
##187
##itiba
##escu
##2383
##kajima
glucosamin
##nagh
smar
##êsu
bni
##gant
bronc
##usen
ciara
##spector
##tlđ
##626
##visa
##wig
sketch
roos
##chirac
##arakan
##eferi
##tral
##734
##donis
takano
machin
farmer
##1712
alber
##007
##489
shelle
##itto
##phyll
##mbok
##tso
kura
##tube
yod
##eeping
aureli
1877
##beau
nsr
academic
##huahu
##energy
##xima
##dulich
kuku
##sugi
digic
##hamel
terren
##thạch
fork
##kiewic
##poche
##lica
soga
0168
##yumen
mccall
daman
##pression
##ppm
stad
0915
makat
bisco
malt
##antino
##rila
flights
oktobe
##arbayev
aquatab
aristolochi
beneficiar
chiangrai
cumberbatch
donatella
fingerprint
jenifer
miroslav
neanderthal
partheno
rhythm
schmit
smirnov
therapeutic
ubtưmttq
yenisei
cartoon
rescue
acapell
kandahar
##artagen
poklon
matveyev
sokolov
keycap
wolver
fleur
##ushakov
kebab
đkks
hawkeye
yossi
ascac
94679
expedition
vivald
owl
section
schaff
rgv
malwaretech
bridgewater
kramer
unicorp
mutant
97135
lyudmila
mephi
imogen
aimee
pincus
karmann
##remon
##bvn
kasur
##lage
##buro
nouvelle
opta
onesky
##isand
sanjay
vell
client
1409
valda
demps
bacar
vstb
fournie
queiro
bugs
ratio
##684
btdt
##dice
##uhair
##harkov
peres
1533
pmf
medved
##ssert
kanter
endur
oger
duplex
igua
henley
##gden
deni
##pup
##317
đõ
ksc
marimo
novel
##avista
huma
divo
##asset
##shvili
##ruen
lotter
hidro
fos
##rabus
hado
xiong
##itrogen
cttn
rhum
kais
##imay
##roxy
##487
##034
##lsvn
publisher
##eeva
egc
middlebur
##6737
wolfe
sbm
hiran
nmc
hader
##qq
##569
0511
jatup
##atsby
tìn
##388
##static
##teria
panpa
nutt
dump
whitake
##nsin
drax
faria
rowe
##irali
soks
##hoang
elbe
iona
##vì
##slav
##ucha
pages
##romit
guns
rfa
timothee
##sander
##honna
tnbt
kow
spiral
##carus
##kotor
##emmett
ryeo
excels
##usack
##audio
shoes
##bnd
##2268
##chame
analy
##psti
edmunds
hurst
martín
##molov
##ntep
ardu
hobb
dante
##aten
##enmark
telsa
##ernick
##lico
##phen
ráu
budh
##nthone
warbur
schuste
##6868
amano
##aciar
vvf
ifl
otan
##cassandra
surf
##ovp
##orama
##284
##glass
##296
##tennis
##đây
plen
##nadia
apollon
kuchin
##querel
edc
mead
##799
1834
lhc
sick
##abry
##756
##chapo
jorgen
##herry
##teay
##ucav
02363
floren
##thavo
kef
sulu
iee
đhkh
calif
##itol
##orient
##orov
##ienne
##484
amic
##khun
golk
##fman
berli
sfg
##ueye
teleno
##ronin
brandi
##emer
##rái
##attp
valleca
pavlov
##dyne
bsk
xừ
##gina
##print
##werk
##oshima
corneli
process
##rofi
##1978
##tintuc
##856
lipa
##thoidai
##makeup
##thái
organica
##appist
cbvc
tlh
hartman
##474
##endorf
##active
phankha
cummin
poole
monst
##fight
##micro
specific
hammers
##ethylene
##1027
##aburi
primu
##ashov
progesteron
##def
decan
montgomer
##inque
shab
russel
plum
natal
##kull
jef
influence
exmo
##toxin
elekt
##ukase
##celeste
##tavecchi
affiliate
biofloc
caterpill
décor
fugger
indonexi
juniper
mercanti
militaris
muscle
prostaglandin
shepherd
sikorsky
deawoo
harakat
higashi
sitthich
gluxit
daenery
gracie
truffle
batterydown
novemb
##rbonne
flair
aldrin
slipper
gettyimage
rolland
donsko
ferrell
bedford
##gyi
dolomite
dooms
##harraf
relay
perdu
ctubnd
vogel
curiosity
##lnt
invent
terrain
amer
melend
parabol
shahab
vfm
drunk
##độ
##stafa
historic
tefl
tnhhmtv
ajay
##jepa
khụ
##enox
recording
openai
aliou
narend
##retto
lunch
jehan
suthe
yusuf
##ugar
mineral
##illigan
biswa
##nolly
##mantan
1748
darman
##esak
##298
toys
agus
gould
malign
##edx
##lding
đltt
innes
##rycho
shuri
testing
moba
davy
##kuji
mehta
yukio
kern
vilca
stud
shelve
debra
##qđd
##378
##3202
homed
sulf
saxon
sés
##1300
##604
supra
iwm
##asma
pè
3364
##usaka
nouri
llei
##kmat
##vilen
spartan
##rkic
##ljan
fock
prak
villeg
muk
##osphere
##647
karem
wrang
harm
tfl
nostra
##varma
loved
lydia
##kore
kamlu
talon
mdl
tapa
##egera
msl
brittn
lune
##898
##jos
##amada
canter
tuong
rolan
##onnen
##hillar
##kako
##aylee
sbr
uôn
##bush
##heta
##unep
##1386
roes
##erie
cabot
kanak
balbo
quintan
##kwid
balai
krakow
##fix
sage
##pembe
##loff
##9810
##gap
##gsat
makes
burat
##tesse
enchant
##773
##mission
##hàng
##đà
##2014
##cik
##hoon
##older
csv
burk
rohan
garay
micha
##6976
##ngdong
##onne
alci
qtct
##sters
##nod
##anabus
torre
shiba
##shfe
keto
batal
##1796
##umbria
##mack
##abala
1141
2917
cosa
primar
##551
##gent
taiga
##dola
pps
adha
##hyan
1814
##percy
deer
saki
##hiev
##ntx
##rá
##tools
bender
##stars
abra
pbh
##vụ
hoss
beemar
peterb
##edmin
##kane
ttct
varic
kishi
##tamina
silicat
##vigne
##studio
##lien
nanomet
1260
agtm
hipp
##tape
##154
1348
giorgi
verlande
##osef
##690
benja
african
pich
##988
##rense
fauc
npl
klan
##udge
eurosta
##window
##church
##limited
reif
##saudi
hex
moha
verne
redtour
phev
kst
charlesto
##atkins
##533
syl
cfm
6666
roar
##144
ias
##338
##little
##was
yond
kadi
##lynda
##phapluatne
##local
##alvin
siberi
##slov
brahmaput
erie
1241
##sholm
krasno
##ratis
advi
sripa
fsma
##canada
##vivu
agalarov
chulalongk
debka
dexamethason
frédégonde
hydroquinon
killmonge
mcmahon
retinol
samjiyo
sinuiju
strychnin
ulysse
cristobal
ctgdpt
cupcake
devfest
stirling
vietcapital
arkhange
chappaqu
impuls
whistle
disease
january
bistro
##hejiang
duisburg
##inniti
expect
##ramblas
soundbar
maddal
crater
providenc
98079
superfast
honjo
qalam
##oquoc
podolsk
##achim
luft
pritch
##embassy
1844
mediamart
shirin
planner
ubtw
ayesh
micrô
kaylee
unbreak
swank
##iflu
##ejin
gallego
##mins
insee
arbor
beltran
patton
##ryne
##jong
cowboy
gottfri
cargo
region
draper
ssb
hogber
daesh
davich
ebank
##exif
quino
##veco
harith
cathet
isee
ltnt
onik
bones
aldehyd
knife
mathew
furan
gloss
doctors
##retinoi
chrono
##élé
bissa
##banh
nguyê
malek
bever
##dental
##ecce
shadi
carne
##oyin
cstn
alcor
calum
fachi
ships
allow
structure
evers
rhian
martell
##pharma
##lfig
ethylene
##rilla
avic
##eswar
nikko
kanya
##377
roht
##antana
hild
##chuck
gaku
gault
##duk
freita
##ubari
lakes
1505
yongsan
##efeld
##invest
arne
##outs
1839
##eden
##rce
dharm
yug
##598
##egger
##lcp
##raw
##union
shigek
1366
##lađi
##uiku
1855
grom
imas
##hien
stx
##dhika
##ofree
##lvane
mikhailov
##deira
1601
##ekul
flavi
shara
##kula
##leak
therap
0986
laohaku
##avex
##phosa
##wton
kass
##183
##remont
liar
##tseng
nuris
##hair
hears
mohi
##590
croc
rosco
##acama
##khxh
##ồ
critical
##thecu
##cleaner
senda
##lier
##fell
meira
##amun
##bssc
##orrin
bret
##cif
##knews
##631
##urul
midea
##2869
##hisar
##ickie
##ulkin
diop
##lgari
alsto
empower
##cow
##brus
1553
bersh
0961
flop
##0103
panthe
wach
scottis
##rrillo
cfe
##465
##quist
##158
##sphere
integra
##argo
##lrs
##gheit
##báo
lht
##tasha
neves
gpd
##khors
blast
##ndchen
##bina
kaen
##avenue
ascot
##staff
##erum
##pped
##evski
aist
##armas
giet
##bamba
##shark
2106
##imet
koc
knot
hiros
##eynes
##shad
##357
grann
coron
##ldk
pater
norma
medel
pentag
mush
##meet
##617
##wns
##lần
##adashi
##arketer
##oyeon
msnb
##div
jelly
fino
##vitec
##990
##olange
##etep
universi
##bscl
##ogenes
##khonov
jalan
papilloma
##000189
arstechnic
degree
dehydrogenase
forgiato
gordievsk
grothendi
kondrash
makelele
octopus
pompido
postdoc
tajmasago
technoprom
unchain
assyria
psychologi
haddad
neuschwans
spectrum
ubgstc
mironov
##inehar
shaikh
siamsport
uvbtv
##husband
ecohome
entry
thoibao
pedal
infern
invinc
planck
pyrene
sheikhun
vilni
đkgd
quixot
fomosa
matera
##cynthi
enigma
peyto
juke
magnesi
mousa
internal
jenning
traveller
roto
cipro
hexa
beige
bounce
##geum
sofri
khươ
annapur
cadimi
##340201
troms
belen
according
hough
woda
##ovka
vntrip
mcderm
##cealer
##dolee
breda
supper
frida
lucern
bahra
##oeta
##oeing
vicas
vpg
howell
emergenc
manpower
yosuk
dailystar
bonus
##faul
bennet
##xaydung
##elief
applie
3487
sight
##cloth
##331
aubr
peptide
hawaiian
finch
coolpa
khadr
abella
rommel
writer
##fosi
asd
bogo
luton
marcon
pinto
##barth
volkov
##lcđ
##xen
##nnell
lowy
##2016
silvestr
gyps
markov
##spark
caller
jơ
##hakan
treat
debu
pars
kawab
##rme
sandi
##rgic
these
##erri
##rogen
0974
##ologi
1626
savi
toas
vọn
##0385
locker
0937
##cico
mbr
##rail
personalit
##entes
##venue
##nics
##segur
##sơn
cascad
hult
urat
##doan
amra
##ridam
##ebas
quadri
##awker
kell
##sila
##955
cruel
##xnn
gerai
##rrison
##ouge
atsu
##iehl
##aghan
aparth
1307
##ikhin
##baco
##435
##bsi
oro
7300
##owie
1471
##frame
##scha
syra
coen
rial
##hcb
quyê
robers
##saya
gpc
haiyan
ember
eduard
##meida
##đgv
##itsch
anifa
takeo
lhh
##ishino
foal
electr
##kyll
1427
##bhan
descha
engels
frey
##7619
##bkk
giro
##inoki
ngứ
##then
##icci
sunfa
7500
##ơr
blur
foc
##ambri
##000001
rube
heek
1775
pianis
##leuch
##varna
sapo
##shell
##liê
##enesi
fateh
##night
utm
##loem
##ryan
##376
arcor
ayo
##heung
schel
##anami
##730
galactico
ginger
yuta
##rsal
##kenin
xj
1506
ttnt
##obb
##uquet
bulk
##rella
##hisham
##truong
##coric
##delman
##cheva
evert
kella
##stien
##daddy
##arnia
romagn
##ourou
##hek
##turk
kanda
##plot
prach
kfa
kampu
##bảo
##porat
##thias
##eisel
guillem
##koda
giú
##lenta
##kist
syr
##job
##doup
lđq
##idol
starbuck
mihai
##onov
##vũ
adf
##sugar
mandel
alisher
ambrose
calhanogl
ecclestone
evolve
expensive
khodorkovsk
margreth
mondul
morgulov
phytoestrogen
practice
pyrotechnic
rigonde
thamsatchana
wilkes
worcester
infrastruc
kovalev
mogilev
stéphan
ransib
benign
hodgkin
preference
lonsdale
retable
transformation
96706
##ulkarni
sweden
toluen
nicoba
ministry
sixty
pussy
jucker
##qlđđ
tsinghu
rodney
femme
bratisla
kernel
shuai
##ttrell
kaha
sheppar
bethan
vbh
##inta
nubia
meldo
caters
kurgan
hmn
##innotek
vondr
##vlnc
##sweda
nrg
decem
hnf
aloha
interface
##igge
giordan
piece
bandera
aguad
fise
##imiss
bhaya
botteg
paduk
judge
prana
1190
gaines
grillo
yomi
yuto
karst
damir
hitech
cristo
anlt
chinhtri
kinhtedoth
##998
gdct
akar
##ists
cyto
pgc
coor
##assie
ove
##league
##emia
koali
myat
reggie
##hores
meade
klx
##station
##wff
##oudou
##esra
iov
moreira
marij
gerda
serrat
byte
gord
##venant
even
peach
nghiep
##kurt
##ialy
dwr
##ered
dwy
##anolit
2375
flour
##oygu
bovi
sibu
##risis
##enberger
bavarian
##791
##rdeka
jayle
galleri
tuor
##tribut
##chye
##royo
muji
##fors
symbi
charme
##phora
##641
##erche
##guri
##ekho
karla
hwangso
boule
vicent
croi
alden
1778
boll
rya
##jbj
verho
strid
lele
grau
blac
seen
pavon
##ural
##wij
urs
##eshkov
jace
1333
##estro
moas
tnb
##alse
thtl
vietne
hvp
##934
souk
##tài
##788
##jack
##indell
##lligan
##abate
erase
##3109
##denso
##lito
ngoác
1393
##ananda
jato
##nacion
sarando
##nên
wmo
##asos
##reum
##iners
andersso
##orse
clarit
sunda
hgs
##egna
0984
##yoto
##pulau
wsb
##lij
##akoto
cuk
##275
##lgan
##pocen
##chevening
##hye
##cần
##tsuka
bernan
mosu
##kovich
##ghị
##ebsk
1208
##orobu
##636
##navi
##safe
##ycov
mitra
##egue
tkc
kinse
waverl
panko
topcar
scale
##equip
luce
ferd
##4896
ceb
hrt
##gae
##cetti
##409
##5969
##alert
sandin
trogn
okaya
kimchi
##rls
##sultan
##football
##pova
##rasak
##tuong
##tower
##acod
##xnc
kots
surin
magnit
mita
##catcher
marwa
fero
activ
##bench
##nsberg
##nobili
tariq
##soud
##blum
##plastic
floria
fract
memo
##oogler
##amrobekov
rfc
coq
diode
##laysia
jér
##stappen
beefste
elephant
futurenuri
immortal
individual
lepont
polygon
qassem
rajagopal
sanctua
scratch
selkirk
severodvins
sonntag
spiridonov
unpacked
yougov
culotte
helsing
qcxdvn
smallcap
glacier
ikiga
segment
akanj
repair
chemistr
lipstick
todorov
cianci
gfx
##ncula
firefly
konenkov
verón
alcohol
90875
saskat
agreement
scalis
91739
95409
rlch
shinkans
veget
stafford
freund
shapovalov
seast
sorbit
chloride
freud
catina
wgc
irfan
montaig
##okhin
iheart
##ersei
sonkim
johnnie
orma
average
##schild
1558
appel
##725
aboul
##rises
1843
cogniti
##axpp
filipe
##dija
atshan
thanhcong
emilio
volocop
vecchi
##adora
##arriman
mitiga
wiley
qlrr
vape
1780
gorge
regan
##rijani
##chủ
winer
tvgs
sportal
lsqs
bahram
9366
bodega
##shita
bartol
##kwondo
1460
hilal
toof
carro
processi
qns
veneta
kasho
ponte
glyce
1854
##7885
##terlin
##1171
##umeira
maranh
##uval
elk
##enham
##tqd
instarg
ballon
##ditional
cosplayer
##ajun
cress
loca
##smond
function
##orkin
karaka
sakae
davi
kampo
sherst
xca
ttip
##166
cbx
##358
##soule
petrucc
##akron
grassle
##lá
hess
okay
hyosu
##imada
fullh
hega
##rabbu
##niss
sdd
##otep
##ongdae
jolli
syed
##lockhar
wiesen
##tbull
nisse
millen
1482
##tember
nôị
bunp
##steria
breaker
##kuru
##motor
##cover
##caca
##rli
##ytos
##294
msta
cops
schools
##eylan
##urves
bryn
kumk
##kylo
nunn
##ulfi
schar
##ract
##ggen
##alotel
##đcđ
##teb
basila
0964
semen
##suit
ache
loud
blom
##enger
##sheed
##ellucci
merci
goss
##ghal
##sthal
0941
##mob
corps
##amir
##jul
##janya
8888
##lath
##poll
khọ
##cooking
swei
proti
rohr
##kiel
willer
mukhi
##inisto
timur
bjo
reggi
masashi
##verage
slate
##katsu
kore
##499
dover
alita
##ggio
auth
##611
platt
##urion
fertili
##ejc
##syah
##entian
##985
##smir
##dusa
nằn
0868
curri
##bid
##eesco
aqui
fahd
##ronto
homme
supha
bursa
##lostri
karam
spei
##stase
##check
##botic
charg
composit
##ibbon
enders
ryol
reebo
##ullo
##servation
herod
octavi
##ocal
broke
stey
0936
yae
##manuel
##unac
##irae
vete
ocs
##knit
##alvar
simons
##boon
jeongha
##fuji
##nghiệp
##điện
shana
##thiên
trự
##ttkt
becke
##ngoon
mitre
##same
##roglu
##garh
cyri
relan
slowik
standfor
đhbk
##teccon
##lone
##ntier
smooth
histo
##flex
##rkus
acne
##thịt
milf
##597
ambition
committe
experiment
foxsports
marguerit
mccluske
neighbor
padget
proceeding
resveratro
##shcar
irbm
kuiper
rooftop
saveliev
scholarship
5214021
felicity
mondial
rycrof
guadelo
byany
prompt
railway
videgar
vjfw
cqnn
exeter
knowles
qshn
dvyt
exhibition
linole
rosenberg
toxic
damme
##onekham
orino
kusam
##sfahan
brillian
##ongthuong
##ikhil
hđkh
##orentin
bcđtw
magnolia
shtor
besni
##chiche
bigbaske
##apeco
êmira
arginine
safran
quinolon
gigawat
nineve
dealstreetasi
kotak
savoy
sexto
synth
cavalli
acetylcholine
gillian
kroger
##sall
physics
##894
##eaphon
quiet
##6000
groundho
layun
berbi
jlr
##foods
katyus
surat
seonho
vehicles
roof
##attwan
huffpos
##nucleotid
11356
wies
ubmt
shona
rumba
kuang
mullen
##2012
parol
##spray
stake
0125
yehu
gopal
1183
jannar
hmc
pall
##464
##rohn
undercu
dunki
caffe
##tinka
##ksnk
xxvi
##ysl
tarana
##kiat
whise
harmon
##jiv
##oạn
logictic
simoe
##rschel
##ulga
pouls
dorado
##jay
nisha
camelli
buhar
##dness
kbh
serb
##erem
tanta
ashe
##valdo
berk
##lude
##kchang
ascend
ohani
christo
##odder
##ispace
baroni
kaew
7200
##185
koso
beak
ethyl
marron
couch
##boud
ehome
5969
voyage
##imbal
sugit
yours
##orga
tamaya
##ivest
basin
##stha
mmf
##tress
clw
##memo
##agri
##kud
##elux
##2127
##fos
gerry
##boong
sketcher
##rata
barrie
pne
angara
waf
aude
isf
##morp
##isac
##ằn
nils
madu
avig
##lows
##actin
##valov
ekv
##rious
hwase
jahar
##766
##909
steph
##burger
##oort
sidewind
soren
##ewind
augustine
fll
##tepe
##relli
##abaye
antero
##759
##flik
theodora
wits
posit
pore
##taewon
##users
starshi
regen
##yadin
whel
##epin
geminid
arist
svet
##deraa
schw
##otiv
kron
##fisch
phươ
##lemans
pula
hđc
osmo
esq
kalash
##831
sxk
robb
##igata
maximu
##upac
##daemu
##codi
##nss
##urman
##eauty
sustainabl
alter
natan
##alde
modest
coda
regul
konku
orsa
##hiace
##siro
##laser
##grove
##chael
0975
##terra
##yifa
1753
##694
##ogas
##ulet
##renner
##allende
##gender
ahme
heir
selma
sling
##enke
hola
axe
luxo
khơme
haq
##576
minds
##student
##xlvphc
##arum
##pacific
##guilla
##service
##carlo
##apata
##ismo
##research
angelin
##1803
##piero
##cube
##981
##hours
##abur
strada
atgtq
##bill
harun
gustaf
##ebele
##chun
##phenol
##eckin
ilsa
0943
##fano
##lmt
##baud
vaooooo
##033
rumme
wickremes
airplane
bolbbalgan
centenario
chaudhur
fiorano
instrument
pueblo
subject
targaryen
techdemo
angiote
kashiwa
leishman
turbocharge
afghan
bajwa
chewbac
deadlift
dunlop
error
bolsho
millionaire
tjahj
radwan
recycle
carsten
navigation
rubber
female
interrupt
kogyo
##1334
natalya
altcoin
steward
repub
hashem
request
worry
laundr
shapir
mocking
rufin
pakhta
macworld
vinicu
##heranos
inglo
gtktq
seahawk
mebiu
qtkd
kpui
collier
dêê
kaep
nonstop
sabine
udom
plek
pokr
barrack
greer
##bochum
orlov
canikl
nqtw
torque
tudor
gugg
batac
saxony
vrij
##vias
##ophone
muju
##thlon
sefra
##syan
mcdo
##bnc
dasan
krati
sachina
##marla
##agorn
macall
influen
tcbp
15063
##onsen
nhâp
becket
donnell
autocar
dewat
kryst
icor
kodo
permit
dunne
##rimau
donglan
##chell
aharon
flare
tokaye
harro
urea
klông
acme
jers
##vod
##caid
rawda
nanda
timber
##canang
hđtđ
vivek
##combe
yume
bodo
##lona
lhg
vanill
cadet
##cuse
benson
##ssec
yuth
kling
marise
wallet
speaker
tintuc
##argent
##494
##hpur
##america
demir
cuoc
2371
##solution
eita
##ocean
myria
##ochte
##ỏn
1341
naria
##11002
##liss
kalma
##stol
rincon
##copter
##neski
proxim
##ekasi
merit
shasta
##bois
polyte
0914
##ummy
xxxx
vietnammo
##tiver
marlin
shota
##alfer
##etes
mdc
fbk
garry
##443
##folia
##lí
donaldson
##plat
panto
##akuta
purchase
faber
##evco
husse
1606
##lhđ
vinalo
##winkle
##elope
##khod
##abna
1648
navarre
meer
fitr
vitm
##ehler
suti
harts
##angen
ngồ
##haruma
##india
##gence
##iqiy
2201
cancel
astori
nsf
##hukovsk
laban
heme
vinale
##ssus
##ghada
bernand
sids
##alame
kemal
##bied
##cobal
##itkov
##buy
bobbi
1580
whipp
##entina
acetat
gữ
hamee
##alys
##pdd
gentra
##rse
btb
galant
##emos
##tttt
itb
yian
kaga
##ukban
##ersch
##otex
mame
gulb
##imphu
carbin
kagam
##tworks
bahar
##652
seleni
milil
##ampa
##ranger
##asuka
##mort
##cist
##3888
##ravia
0906
orbit
forlan
##đề
##kkiri
##elve
##aeva
buff
##juk
pream
##culture
##wand
##xie
panki
##dothi
shindo
##ndation
##rowing
britanni
##eagu
remove
used
linder
shiga
resource
##autobiograph
##eriev
##wrap
##ledger
makert
##gupta
##wehr
##voice
0021000
##veiro
independ
##think
##6789
##vợ
amba
##ahir
##trở
##guly
caldwel
habu
suff
adas
inspir
##lets
qhq
##flower
##afiq
##graphy
demb
piqu
##beast
##john
##cott
sabati
##ottle
brys
pensa
##997
##265
xila
##rneau
nouvel
arginin
##eckit
jaku
##volution
trichlor
borod
surgut
relations
barranquilla
bourdai
cappadocia
carpenter
collision
darkseid
hippolyt
hurricane
kaufman
ljubljan
messalin
paektu
prebiotic
rembrandt
rojiblanco
seminar
sheremet
tenerife
tetrodotoxin
thyssenkrup
yoovidhya
cravat
gsđtcc
heerenve
jourdan
mehmet
vkontak
wainwrigh
indovina
telesur
thornberry
##shasa
concern
majumd
phốtpho
flanker
rosalie
schles
supercharge
assistive
mosaic
pancak
selection
xdpt
amunds
colour
mollis
amylas
suresh
meister
goolg
barbaros
borden
saeed
hđmb
##emba
wanbi
adwo
cttđt
unfriend
folder
munir
kuchar
favre
greco
saleum
haaret
2099
emelian
innisf
##achvang
lucic
mcclu
waste
tiberi
hatami
kawakub
lovell
nigi
##rante
##engma
hikar
kachin
usage
##arallel
##fcd
tulle
pontia
massachusett
provider
longyear
polonsk
##ík
collect
weaver
tubb
tippi
qchq
##lack
agost
fxx
hiệ
cigar
furnish
acai
##mvelis
misha
##gnl
foton
trithuc
nhiêù
##tgtvt
madon
##ttenburg
ctrsh
##thời
sousa
##lius
brc
##siel
##equali
jere
##1064
senamu
panax
mods
piff
junre
sasa
vcsel
molon
mauss
igni
##atgirl
brocco
breton
cctha
##focus
##hanom
rasheed
progress
viettroni
poch
gourm
##rynan
bragg
##arul
hilt
##ww
##mode
includ
##897
slaw
wcs
##vw
##damia
##ollers
##arias
nursa
brandy
##648
##liso
##uttle
becgi
voda
0017
##organ
##magnoli
centri
shuk
2960
##fund
redmay
berkle
##akatan
##cuk
pgr
curb
fluor
evangelin
optica
##đtk
##akie
terme
##orsk
##tawan
##youme
##1515
tello
janat
##bé
##ottman
##assol
0908
krono
##rhee
##ousov
##pics
##brick
warfar
##vapa
##pvp
pell
rosko
##571
##đcp
##acial
##585
mosa
##roop
##nhat
##allant
##frb
juki
eris
##karim
##bark
##yaly
present
##1514
shiv
##romance
ocd
nance
inspire
wrc
faki
##byen
##bene
1527
##clid
cheap
basf
wallpaper
##drade
##icav
##edit
tsim
gpx
##adeq
clarita
atac
magde
konstantinov
##attle
aict
clone
##srp
##tân
##eanne
folk
miao
##luis
##few
travele
##ppines
##lice
##643
##ssive
seaborn
proms
##859
##141
##phapluat
peral
##argol
lyce
reso
##ugin
masoo
anastasiad
sandrin
pets
##efir
##354
##irli
salva
ashle
##orta
crick
pbx
##vhttdl
nbh
##ijen
##haven
##moitruong
##telegraph
##chick
mulber
##sheep
##viên
##marble
##yaty
mariel
##vati
1787
##shun
##uncheon
##north
##mmoth
##riches
##sahin
##story
##6666
##ddtq
skyvie
##989
sharmi
##rolov
malaya
houl
marib
camara
sebast
##động
vpk
paradis
hines
shapoval
1758
##ordinary
accept
albiceleste
cerberus
certified
cheetah
eskimo
fellowship
haskoning
juventud
karnataka
mendelsohn
mermaid
methaphetamin
othman
phounsavat
supply
ulaanbaata
vostok
##edouane
authenticat
veteran
parmenti
schinas
spread
calcut
mutual
release
valex
reveal
puffin
skirt
ariadn
nomadic
viettravel
roaster
tikhonov
borst
database
tomomi
123456
pmnm
squas
examine
rookie
barnard
respond
lifepro
ksđt
whiteside
96570
proust
finca
##monella
shlom
candela
biologic
jovan
kuhn
dolgop
taepo
botanic
barros
proac
##lechar
airway
1770
ghat
internation
creta
vnvc
hangover
spoon
franchi
graeme
##osako
##bitha
cirr
##elta
rnb
##erlain
jardin
hibik
vichy
##pixaba
hermen
phibro
hđxd
##oboa
hawke
lampo
ruggie
cristan
##samen
midas
koral
eaton
##yrus
oerlema
glock
auf
##lament
##liên
##gioitre
drug
tessa
gotta
nagel
##averin
bertol
productiv
kryo
formo
config
bruni
niva
charly
##minator
##martre
##divisi
hollis
lucien
##okke
##hmar
##metal
##eximland
vaoo
##uevo
##cornis
wards
moure
kodia
9336
mccarr
sheep
##galow
1807
bunch
##iode
grump
bbma
oudo
kitni
tyrol
burnett
quatest
miwa
kogi
goods
britannic
##kline
##2400
cctg
##stda
##ombret
sicilia
kamen
schwei
##timon
##uente
##ould
##quisit
adisa
##jsc
dulux
##phabe
lukashe
##vind
places
kakao
naron
unico
soju
matsuo
##slh
alessio
##vvw
tiff
##seconds
##inuit
2133
##ccvclđ
nimp
vault
technic
##1586
##drơng
kobel
pieter
##adiem
kanto
leaders
##lipas
##ìege
##ashworth
##shka
##guera
integrate
foll
1406
##rinth
coeur
spies
gni
##ucre
##ulki
meas
crec
toshihi
monteci
8134
dmv
ferti
##drup
svd
yamashi
koto
##oita
##egra
depart
1353
##itsyn
0979
##kila
domex
airdro
magal
phứ
##tpt
flit
##move
ferro
modula
wali
##reven
##egel
##ahls
egg
##lư
member
kano
ayli
##ktq
##agus
6051
ptolem
sliman
nabe
##outine
##trị
##euss
abul
##raken
reinhard
cryo
eec
abilit
milen
pertu
watcher
##bambi
olmi
furs
transform
bord
3772
lakh
##teau
##uchy
prospect
##ukhov
piran
##angelo
##sbro
income
##oehler
##basa
##igny
##oniq
ecla
##peake
##oser
tannin
faci
poppin
gaudi
##hime
mimosate
viewer
stole
##pwe
##956
arpa
fuma
##eby
##kashima
dtk
##duy
##ujan
fusa
simonov
genetic
aver
caliph
##glish
##dirov
weda
##ewing
swc
polyv
marketer
judit
##nyak
kowals
##israel
##xê
##tdbv
##salman
##yanka
shri
##uanda
barcr
##eries
##baek
aek
within
##scott
##trends
pharao
##raft
##chuan
##bump
##scale
quinta
medal
##asura
##euba
##emann
##giới
##orly
fira
##junkie
wendel
##gnew
argentin
rive
##rcde
##nớ
##rabbo
##areun
##lgun
##sharq
##1982
kdd
vaoooooo
khẳn
explore
##assana
##xuất
##satsu
kjerag
##dalucia
##enroe
acapul
airlinerating
amherst
amougo
amoxicil
biowish
citrullin
dimension
dostoyevsk
humvee
kirkjufell
landcruise
mecklenburg
nuclei
oestrogen
pythagoras
randolph
sapharco
success
5214020
atantt
gaucho
hankyu
mifsu
petapixel
philanthrop
snakecoin
soundtrack
vietnamairline
gyeongbok
kristian
libéra
seydou
sukarno
keratin
norbert
uqay
wreck
sniper
fatima
mitsuko
beatrice
engage
pokhar
prismati
assign
baumann
kalidas
luhansk
agusta
chakra
deepthi
flavor
kroes
dfj
minigame
pasek
dhv
saphir
##probabl
tight
gyin
krampus
bollard
##jvod
funny
nyu
asiatic
bằn
hastag
##sanna
prokhorov
teleko
justinian
hébr
westport
##ushka
repeat
vtol
##urious
yusof
##parrott
easter
mathis
pcgd
liew
ouya
##ogorsk
align
ijs
kanno
descar
##oulon
mantis
kamens
##norges
idle
sharmin
##ropene
neurolog
aroni
argos
neac
ruler
##828
retal
beton
lacro
embed
##ounie
##illie
humbol
vishn
##tsugu
##donaldtrump
##brugge
##ovar
prây
##alak
svây
##587
##likov
begu
##lamine
##itrate
treasure
rangsi
institution
##1911
1426
sagrad
1327
cctp
amelio
tomoy
ftr
micell
##blis
egy
harpers
fema
neel
##uthara
##nejm
##mpert
##eutre
kupa
aquariu
krathon
##anche
1408
ahlđ
qema
koen
##issue
##istria
paracas
##ebak
##obson
kosna
##394
##arikov
gef
##fellow
1487
quarter
đttx
##lène
ingle
yule
qlbt
castill
hsien
0969
bepp
##ivola
loyol
ratchadap
##nafil
##ahata
corneliu
comme
1670
orbita
##ottori
koban
##src
##3459
balad
##reja
##414
olly
alham
##affa
##ghur
##eleb
##hype
1483
##sksc
fgm
##olla
##nnt
##nkb
mckenn
##asurin
##isina
swit
woodland
maja
##mayo
##544
##ugen
htl
piv
futen
emadi
kek
##429
trees
hino
##onoda
##oops
##ardano
yoyo
wax
martia
##pix
brd
tuổ
##ribat
##shroo
pyrote
pawan
medero
##ukiya
##moeb
##danre
technik
##berton
harve
##rcel
6805
boute
##elnikov
##odak
maxx
##baby
##bitur
borin
##ambang
##nhanh
godo
##bá
knt
##manche
##upid
##unde
##arkiv
courte
yurik
##wor
pedros
dgc
##apru
tory
spina
fermi
roku
##omachi
eso
arid
##cours
glar
##uskin
##ogle
##ully
khaki
##ulic
hawker
##chewa
##anovich
giễ
##ubert
##ylobacter
##asier
biwa
words
##alpha
yanju
##olol
mckay
##282
ôxi
urab
##danov
lagerl
swed
##hilin
##ether
cmb
madri
paras
revo
##pyat
##demir
##ratos
dew
##8000
##2431
##986
jee
jankovi
moskov
##aosta
##6055
##herr
##uwc
##cario
##leisure
##password
bonda
##facebook
##bahar
##planet
##shoes
##screen
##season
cheme
perana
##cost
progres
##espri
##elcom
adso
candle
firewor
amphetamin
lipb
avro
##deal
##okcho
##affir
##1525
##chelle
##257
##lbđ
ashok
hlc
##anquill
##hđqt
##rige
##dds
expe
florid
##fruits
##magic
abdixol
competi
sverdlov
abouyaaqou
ajaccio
certificate
dictionar
dinosaur
disturb
eberhard
equation
gholam
groove
hodeida
jahangir
kapoor
marquis
mexican
mihajlo
redoxy
schauffele
sridhar
straight
sulphur
transistor
yakhont
asghar
bristle
culver
geert
horoman
jeolla
jogger
northampton
roccas
template
ushuai
invitation
scopolamin
familia
thermal
vertical
école
amalfi
98687
generalexim
microchip
vasyl
bridal
famous
icise
talbot
operett
adenosin
harald
themis
yanagi
esprit
juchit
audience
##ephyr
##just
##irko
mojeb
canaan
carpool
profit
poison
guine
effera
relax
everwin
##observatory
bourge
skysport
westphalia
enjoy
goldfin
##arbosa
heske
titus
nuttani
filippo
ecommerce
##bbda
ctbt
##semble
paladin
marchion
mobius
brought
kookmin
scavi
hippie
##rmine
collide
palem
belafon
casein
1708
##rikant
hatter
kelanta
adecc
cntb
karja
dannie
timmerman
icf
##multiple
kiyomi
##lcim
##phố
##rugan
kltt
##oreca
##aixia
nubl
##ergin
##seth
smoothie
mehr
vucic
inova
dating
tommas
krakat
##alcon
##hqghn
##ophan
##lord
maestro
##shoku
##retho
bleeping
negro
##eigl
csht
##adhya
marube
##nellos
##đlv
natto
##dragon
balak
##pignan
brief
eunhyu
massan
##huaca
areva
carbonhydrate
##wale
##radour
carna
ioe
##tagne
##moines
##cqđ
##baugh
##erawat
myth
pois
dmitriy
##thwaite
mingu
elevat
nhiem
boeh
##merga
vgs
kowal
##affin
addy
##uqi
##evik
optimi
pamuk
lions
rodri
pré
flashmod
##860
1499
hâ
beef
##fact
1769
##lieu
creati
##antigen
matej
##ghlin
yakub
clini
beatboxer
##elsan
##atchi
##ayana
curl
##xelsen
kunin
1484
##suban
##ubpl
goldw
##ylic
1662
##pgv
##charge
18001
##ephina
jindo
salhi
khă
wagy
##2903
##emmer
##angsan
volant
##vkin
ahf
valck
scient
escala
derbe
cvr
##ameen
##napha
##ermes
##athak
loewe
sugo
auba
##uido
koal
##interior
##ombs
9814
##maine
##ecano
##1985
vaooooooooo
##chetti
##ettie
##eliye
vietin
lavrent
fist
jav
oliv
##tiva
##orhan
2163
##assin
##schule
leba
##omid
##owic
sonora
schwa
##agni
telco
##amov
paks
0962
##obacter
##derman
##lishi
phase
gpe
##witch
##render
gcnđk
##inpro
bergman
##iesel
shahee
marne
##736
##raon
##epco
##asional
ryota
##0974
buon
##oglu
##umitra
wab
##assir
##etters
##acton
arak
resolut
##jir
creo
okawa
##ckcn
cvv
lobot
ferrant
##hepp
##3711
5555
junia
##qiao
0693
##ajian
##laire
##sacchi
##pmu
calist
##almeria
edel
##edros
phenyl
vivien
##20001
##ococcu
adl
##avong
##curta
##1425
##enõ
##lenci
##mosti
sorel
##reyer
##retti
##search
##khác
blal
##writer
palam
##cacbon
##phạm
rued
##runner
##ejja
kello
wur
destination
##giải
superbo
##miere
##xmotion
hante
bachel
mirad
dmitriev
##epress
##veam
gư
claris
##angye
##tinan
ganesa
##edub
##cph
##ijja
##gello
telegra
##adli
nagal
##tiqui
##urira
charl
##ntina
##tosterol
dolph
svhtt
##rimete
xủn
proven
subscribe
teotihua
adenovirus
capsule
cochran
cyfra
dbkttv
deathstrok
ecostru
equinox
evidence
forsyth
gothenburg
générale
hallstatt
harunusta
kachius
kompong
lômônôx
nicholls
pamfilov
penguin
postecogl
schloss
seabubble
thoibaokinh
ttbtdtcđ
ttdbkttv
volcano
westfalen
cheongdam
graduate
grégo
hossain
investigati
manifest
passenger
progressive
thriller
villanue
##ttisak
blockbuster
dynast
hubspot
abreu
chiêc
holbrook
narathiw
default
confidenc
ttkttv
wharf
hauptman
memoir
fugu
joshep
lindberg
richag
##ribada
platten
njp
leucin
chakri
wilana
bqlkkt
culé
cuocthi
reference
hankook
cabral
etoro
deepak
girlfriend
stitch
carver
##feev
##waffe
costco
densit
goehr
molchan
##resent
wrong
wattana
jonah
channelnews
mirka
##endants
ktks
ubtp
rrh
##ligator
##stadion
##onacci
fourth
##eralit
junker
mianma
yoland
shorten
##ollant
tvqg
since
athen
shary
rylan
montal
hinds
guern
##mđn
qsđ
masj
##ywhere
bliss
bvhtt
##undla
aquilin
ioann
1698
intro
hanok
comeco
##federation
##doodle
##etris
tegel
pione
ergo
sakha
buffer
nails
##bacteri
##oelet
##hulia
##cipher
##allister
##ellar
pelton
##kubra
cornet
shek
tanker
##3241
kouss
##ehaan
##anshin
recy
purge
pesh
outlet
krup
##debate
##letti
antraco
##htcđ
shinya
##geist
barrel
##blica
nusa
##opod
cancelo
grape
deport
essay
yanukov
domene
xdct
julen
pricket
ired
##erburg
##nkul
salmon
##habha
##riar
##abalu
##gusti
vader
##stine
teresh
micael
papain
##ewon
##tilo
spsp
mudd
itri
cellin
##olovin
arter
##insbury
revers
##hleb
usual
scf
mogg
romett
##sudhir
##incen
telephot
brodi
triano
mitec
##mieux
peep
frais
rees
##loya
##ckl
eater
sunthon
klaas
1765
##arbo
burmes
##bekit
nitrosamine
##buena
##centre
##cxd
##rampus
hirohi
##repo
##lerb
consum
tsui
##ttles
##grammer
lerma
microle
##sử
stavro
xttmq
##ssia
kanna
flexe
olympiad
##artest
lmc
##yyti
1763
##kaas
##hiit
alexandro
aileen
##carbonat
##goff
##wirt
##groho
nitrite
##nhnn
##nacc
butte
carlis
##trương
##adya
##ggins
##vator
##lmn
khừ
##viot
##fote
0934
##ksin
lươ
santon
##erbourg
tucan
##txd
##imero
##hili
mcclea
kyb
##elía
marcott
melvi
merk
0292
##atment
barden
##kaman
flac
spon
teren
1683
officer
##akir
##chear
##elke
##siol
ttkd
polime
##aniline
##akane
##veda
##kassy
hernand
##937
##hneft
##einhardt
##ewha
##hsiu
joil
##ingji
monoxi
##elf
proje
##onics
##eligan
##thaya
##robie
##abed
##829
bolling
##esham
pente
##impac
##opula
##rolla
gatt
gerv
##ldred
đầ
idriss
khamta
##thương
geme
aristote
##lasma
##ptd
##yake
faru
glycer
##737
##upak
##dias
suraj
##ruser
##etus
##rates
##child
sêrêp
##florian
##poff
##vlxd
paho
##vilay
nanji
atlant
##khcn
vuvin
##apfa
##villa
loeb
xxv
enem
##atak
promo
##rkk
bohemia
pinker
volte
##eenan
provide
annabel
splend
##alive
darling
##vale
ferenc
jada
##honda
##uktu
##akrishna
hydrochlori
##pylae
##tructuyen
abubakar
accorhotel
alekseev
almasdar
antalya
cochinchin
configuration
diomede
enquire
episode
erdeneba
gagliard
hojbjerg
najaf
navratil
officiel
perspective
phytosterol
plesiosaur
poonlertlar
relationship
retweet
shaddad
siddharth
smolensk
sulforaphan
surrogate
temperatu
vorontsov
wageningen
wyndham
aspergill
bismut
bohusla
britishvirgin
kugelma
parademon
fossil
farhad
grushk
retrovirus
telescope
trafal
##fuego
negri
goerge
##actical
##oteric
kurkova
nefert
wellness
098666
vietface
bjorn
presti
socheat
spectac
valere
pathet
availab
##ffenbach
shtil
pedy
jarrar
bohle
harkin
jinwoo
##cobacteri
cerf
wilber
##neftega
sidus
pharmed
dvtm
acaci
nemesi
libor
turlington
##hocvien
conduct
ayya
##ennial
nimes
##etitia
erwin
piyap
creatinin
malorossi
##leiman
##urdue
##ocheo
maryam
iops
osiri
constitution
charming
illumination
kaju
dvorkov
##words
motiva
welter
qlvt
conoco
laffe
escud
belv
gerba
falling
##kenbo
vallis
tarsi
##word
couto
insur
##ukso
samath
korey
crossing
##hamptons
##ogee
hôị
##deyev
textile
junaid
muhl
cogna
raquel
tinnhanh
##cofa
##03088
mcdonnel
appla
srl
ryuji
##amarillo
prepar
ludl
potom
##scd
novate
##roid
##bô
metin
##inings
gofu
##clave
##auric
musy
keyword
##antoan
garli
##dân
##nicol
complete
##subishi
wps
##jime
corco
mardi
nege
14000
##offensive
arqu
##spice
trichode
đkqsd
##avse
wtd
babel
kord
##ventis
randle
hellbo
takes
##litaire
buil
thơì
pune
barrow
1194
##ishak
##mcb
fpg
ardenne
##imble
##6363
##skop
##enwald
##fied
##immerman
##tanton
cyclop
##jl
##latif
##irib
melar
##qif
hanni
##anchar
##oughb
##genin
##adiva
##chuca
pilar
##emor
##monade
ncr
##nicode
##roots
romanov
0888
##things
##against
##cheda
##unee
##polling
portim
kelt
friw
gtf
ferrar
ghose
##srok
##umma
##lastin
toward
##osher
##ruff
##simov
shett
singap
phor
galliu
isak
##look
graphit
bolas
shalo
##ckis
##ateral
magda
terrier
##swc
##99179
ferran
##auld
gqkn
biet
##evora
gulia
##argan
bloger
##ately
##allol
mercato
paleo
##ongdoan
sagar
##ramin
ingeni
cucch
##ljko
witte
##eonie
hulo
waq
##ktdt
ribi
##haniya
0917
##ausch
##date
##tsubas
##ujitsu
coloss
##akito
##raven
##slaw
##otala
##erdan
##rider
pyro
##edere
giơí
##ensky
cambi
##shahi
##ipel
##awr
##smos
##riate
##kamoto
##stroy
##osque
##nagata
##eses
cread
##lyk
bvdc
levitt
somme
##6395
restart
##stand
##elas
##aurie
lister
##hilver
##relin
sanshi
##lifan
##oxaci
##anello
##novo
##ilvestre
##aliber
sportiv
##lboa
nits
ellp
##amsk
giuli
##silver
##scanner
##strike
##bạn
##mexico
##defender
##bệnh
##khoảng
##cuoc
##paolo
##pierre
##report
##dinov
georgie
##noble
##shkov
karma
##vietbank
##379
huf
meij
##bishi
##dientu
##tiến
kingsme
##html
##turna
##odoro
##luong
##eige
##simino
duroc
##ayoub
basal
##asako
##572
##qlcl
voti
condition
fashionist
##seido
##lester
##necy
##ggler
##lorossi
##shner
##matis
hatsheps
##aroensuk
##ulkarna
administrato
ampalavanar
barthelem
citadin
conflict
cottage
crucial
disorder
doisongphapluat
domestic
encrypt
formaldehyt
frédéric
grybauskait
homocystein
identit
immunoglobul
joorabchi
khutphaythun
lpddr
luxemburg
nibiru
osterlo
panmunjeo
participa
phenoxy
psychiatr
renewable
shvytkin
stechkin
sénégal
telomere
ttbtdt
variable
##toanca
##xuatkhaulaodong
benedikt
cyclam
escort
golitsyn
lactobacill
ludovic
palfre
yakovlev
carbenda
michoac
regulator
sentry
##behind
flyboard
srêp
turkmen
##estruct
narodnoe
tsuji
522203
nephe
javed
kinhteva
##ything
scrub
##igsberg
##shanbe
tvreport
yatsen
pivot
vincos
ktrv
balloon
turtle
levall
saysomph
##aconex
motogadget
bolsa
routle
shrimp
munsu
dragic
wether
vienam
##gatsu
sknc
wenner
jooyeon
pokp
##arrell
lôgic
negeri
##xdctgt
austria
falci
ntsb
throttl
##íre
shyama
rodion
controller
ketter
taedong
political
folge
jaber
cssk
vagina
jordy
ovie
lancashir
##btim
##ewson
ắcqu
barthol
##mpere
##icrc
epoch
monre
stux
fub
slavia
##agarwal
hahaha
skynews
minogue
##veig
seatle
pirr
yeti
ovr
taleb
resur
baobab
bubu
matya
qubit
wilaya
##bairn
hagia
##novator
vrsa
dialogue
cuong
##3937
##optic
fides
bonobo
##tips
grishin
corri
futurist
furusa
vaoooo
##walker
mantu
infra
chefs
##feet
scuderi
bhx
seeds
stug
scorch
gallian
##olwo
##sace
kkk
##entub
sabatin
achill
mcso
dalai
compou
##vesta
ecotec
##abath
atsh
sosnov
##thabu
##ctad
mantra
miec
##ahav
bosco
waterin
gallag
##đô
##bitov
##omani
nguoida
pinkert
##rumq
wfp
##aberd
##wonma
cbf
asod
passage
##altay
##isopro
##ouga
##sachsen
##hirst
bonis
atul
##ygor
##jean
hemal
##ocelli
thapa
##ghness
##irte
irid
sarrau
subhas
##formis
gerst
##emes
aristo
##luth
tomsk
##seline
##khá
gaul
##count
##volc
##easing
##russia
##rotto
##lke
automat
##dermi
##anets
prode
##angjia
kientruc
gaug
valeriy
intene
##ickle
##endor
##circ
kenne
##ilves
##odarte
##rcode
##eppe
##will
guillo
hkl
kentar
mariner
##884
##đvt
##hatc
##vious
nasc
##aslin
mariann
suran
##efv
mahama
belug
worl
##ovely
meadows
bintan
##haloba
##sơr
##1999
purit
ibd
##bernet
farrie
apfel
##jeet
humanit
witthay
##lđtbx
##ylene
##elita
kongol
##arsk
juliett
billard
##fare
##enner
##lauter
perli
glucosid
dsd
overmar
##99559
nimr
##royd
aquila
spall
brune
##7552
osv
##arashi
##1072
##rage
##tekin
##coigne
##đsd
##lease
##tochu
0973
csbv
##pook
##11039
##niken
khatam
##root
##ratton
##xpose
pagan
##uider
ariya
mouni
##seok
galle
##reamer
danilov
##5431
1798
oẳn
##akio
##trump
muồn
hesse
##1374
##khale
##kole
##flare
##mighty
##expert
##medicine
##global
##concert
##trân
##thứ
##flag
##giúp
##diesel
##herald
##1990
##lisca
##atami
wiko
##edef
##evian
##yeom
##scription
##fld
##sdđ
##total
furni
margarit
northwest
##spain
piol
scoop
##mirk
##ongvu
reuni
copenhag
begirista
glaxo
pneumon
##bignie
##campaign
##rregui
##ubtwmttq
##íeté
américa
ayurved
chaturved
examination
featherweight
hudderfield
kasikorn
khxhnv
kwiatkowsk
lucifer
marcescens
polysaccharid
qadir
quadrantid
rachmanino
repackage
roulette
vinograd
yaroslav
aksenov
certain
cluster
feodosi
frederik
hsinchu
tuyengiao
##thrombi
actually
ichihash
##amthuc
fandango
shoukr
grocer
smurf
farquhar
mcmur
crank
forget
incubat
crowdfundin
willett
##eauge
97172
kalyan
pediatric
ferris
serendi
jubil
##heparin
kurnia
##jnar
dobrev
defra
doubt
pradip
outdoor
nagaev
jesper
jolly
arjun
bimex
caprio
defendant
supernova
alcott
spaceship
nvyt
teriya
##drovska
sechs
notting
minibus
ktqt
hehe
neteas
blanqu
anatom
regulation
sulfamid
kourou
schopenh
##edevil
##riteo
##network
##ejman
antenna
bernado
mcgur
blanket
lambs
##odrio
tomlin
shafinsk
sixth
garnet
##rincha
greig
fanfic
nyx
##atchel
courbe
maslov
clothin
cygn
kyeong
kovar
sambo
moments
metis
##nganhang
6688
##beur
knockout
exist
matx
michishi
visitor
##ajran
breakout
calling
xiaope
##exad
##dial
androi
cairn
##iggy
shue
##neros
##dweck
mcgarr
granul
gwyn
weller
rocher
##cett
nescafe
8643
##recita
salern
hatta
barts
beres
superstar
ultrabook
minami
intens
cebr
##gjona
##qab
##issier
brutal
##knya
homini
heeri
##90804
croce
ods
##cool
##collector
##alto
##pokal
nasic
irbi
fabien
contrast
##ichichi
##879
macke
engie
##harel
##dsfl
priest
salami
##ruber
##iobo
##velad
##enden
ktđc
rodin
##syaf
charley
##ounce
##alachy
sasse
##dagon
statistic
edmond
##ologica
##lover
##ahuba
rigg
##cciardo
##rexit
##amok
##3062
##1989
##ansir
huss
archie
josefin
##ôsi
printer
##778
cardinal
##crose
alder
##droid
expat
##khwa
washint
##demy
siren
##ulpa
bcq
hippo
masage
mancha
cheongj
##annoy
willen
archos
##eese
##mbala
##ouar
nsđ
sahar
villaines
brita
seik
atvs
##movie
skimm
##8088
helle
winco
##vacchi
##nadav
##arabel
##rbet
##hammer
amec
wuk
##bbie
##lasia
##avka
##cumin
##ươ
##doff
##nakhon
britto
pagod
##locom
##ymphoma
peco
##kns
##0000007
##ggera
sheva
6855
mdr
konovalo
##ejeong
##hunyi
##assee
##formin
##nacer
##gahn
##flot
libra
##afah
akay
##8991
aubur
yamaga
##eddin
##vimar
##ocuse
spira
opel
##đql
##3660
reel
##nhau
##orowa
##htk
##pehar
##riboe
visegr
marda
jorn
##corder
##ẳ
##counter
vietso
ease
##karev
anett
kike
perform
hobe
##ayuth
##abbar
##đơn
##lý
##elero
##9769
##doit
dombr
campan
##gebo
##comin
##ttir
omnic
##heels
##otary
prabh
##parent
##grab
##ouw
quere
##elocal
##ulous
carbohydrat
##metani
##owland
##ardar
##malek
##kyush
##berlinetta
##maidan
##khiến
##breton
##quyết
understand
##fumi
##camara
procon
pằn
##8590
##luôn
moskv
##ynaud
##robov
##rreta
nucleo
##bretton
##ronik
straw
##haiphong
##luru
##temc
##ellw
creativ
##slide
hdsai
pseudo
communicasia
require
aeromobil
appalachia
apprentice
audiophile
cathedral
cottbus
cvcskl
cytokine
exploration
flavanol
ghassan
goliath
gunpow
gypsylala
hippocrate
jigoku
lincomycin
majest
molybden
negotia
nitipaisa
nutcrack
ostersund
pascual
pechersk
phanxip
phytochemical
phytopht
portfolio
rajagoba
scribble
sensual
sigmund
soekarno
sonatrac
starwars
sunfua
wahhabi
xenlulo
acre
bakkal
baumgart
cydia
hargr
likida
negre
styren
##ypries
doucour
myrtle
sayachac
sympath
effective
mijat
ngbth
recipe
sibutra
encounter
tsunam
buerk
citation
xiamen
colonial
legion
mokoto
nydaily
chappell
lewy
muschi
putat
capuchin
casper
ketchu
acantha
##abbage
aspect
peregrin
glycolic
autralia
##biggest
kalou
##awahir
tambour
targa
sindhu
##avolta
breiten
janju
mysterio
echel
scots
grammar
##000015
wahab
parthia
lopbur
felicia
##akharov
##ampolli
93666
javen
mccorm
joerg
evangelist
scour
tkts
stump
smear
borri
suburban
lebovi
butira
hudgen
bolognes
lopre
vilayv
mystic
##bmis
monika
cristal
ulyanov
supercar
ryad
chẳn
iadl
sulaimaniya
macaron
besame
susuki
##proxen
grimald
methane
##mestre
palpa
##stsel
sarath
trompet
##obaid
rhodesia
curious
gondi
##terne
marchesin
qđxp
##econom
##ffler
okino
##auré
##vorone
markku
saracha
kaidan
##oricon
semion
##olpe
crooke
##panish
##rkhand
##ccord
flavon
inclusi
awallud
##omsk
piperin
epiph
##iwate
safad
darth
impal
##uehua
##bond
bitcon
statement
transparenc
##arabia
##amalov
##hachac
indus
##uraro
##erpa
shade
##banov
##alanci
ballard
##liqi
##easant
##liev
roongr
canava
##extor
dilling
fedortso
sabih
##975
##kady
##startup
hoè
##asebo
leonor
##umya
điêù
##bread
##gruppe
##jevic
gondo
##isick
##ulev
halde
##bcl
changsh
##dence
imad
iwasa
cleans
##geek
##kosha
gusto
columb
##hiv
maren
##fels
##meets
##olingo
##urrier
coconut
##elgor
silber
##éreá
##jovic
revel
##osia
##axter
##ensia
##tooth
##ingyu
butan
##shard
##vado
guel
spaci
kokor
coinsc
jado
jwan
##oding
septemb
messag
mrơn
##arshi
schae
##uhd
##trobe
##raat
abdolr
##inville
##faco
##plano
##20417
roue
##radle
##ennon
##reston
##tsuri
##avita
##vfb
##hanako
kmă
gunma
##yeok
kaira
##cfd
##ried
kaden
##aplo
falm
slavyan
karna
demme
##rld
##yndi
##phere
##imita
##vitel
bigger
##8018
##finity
##taglia
##hican
sturm
hinkle
##reds
##kuchi
pluto
##livo
bonfi
##vhq
##beam
joost
##honey
bertra
ticket
##aoki
kolma
##umov
balda
##onow
##ituk
kucha
##hptđ
##eanbank
pugli
kamil
##otman
##aylor
##menov
##sissi
##udg
##iggo
cryptok
slovak
hubb
##peaks
ifta
##sitan
debr
gpr
##adji
##ecaro
##emmel
##statin
##rjah
##2679
polk
hersh
##altsev
laval
##liman
##ová
##hokan
aeri
##1201
##đtq
##opyre
##mentos
##pxk
##claim
flav
romme
##ubel
hkb
##growth
##composite
##telecom
##filter
##shake
##shirt
##phòng
tropica
##brands
##player
klub
##danang
bargh
conserv
flak
asad
maritim
##shaq
valenci
litv
##atsuya
deene
edinburg
##ituto
calder
##onate
##epam
##effen
chambo
##astronomy
##nghethuat
##rhynch
amethyst
approach
bulldog
bundestag
copolyme
csqlhc
dickinson
doanhnghiep
foxtrot
gcnqshn
hanoiredtour
hijab
keychain
khammouan
kunashir
lafforg
launglon
lobster
lokomotiv
lukyanov
minimalis
murunta
nikiforov
occitan
panthongt
parliament
pyridoxin
religio
rourke
scripps
tracever
trichomon
tuôỉ
vancomycin
vorpom
alawite
annihil
ashleigh
automobili
coyote
obnos
paracels
permanent
ponomar
puberty
qasem
segund
shetland
timofeev
yanagimoto
đâúth
5248010
buryat
dichvu
effort
lepto
suspect
tradewind
##ristoforo
budget
catalina
shambh
##hetou
krebs
moderator
schiavon
thinkmarket
baqer
felgen
percent
gapyeong
orbes
stekel
galicia
loratadin
gracia
reload
sidgwic
bundle
carribe
pharmacy
leiden
rossello
skinner
stauffe
##olkid
92836
breast
patent
himlam
landscape
wirapo
95956
pnf
99004
travert
##reobra
samarita
facedance
kasumi
defian
array
fomat
renmin
alumni
##cithin
xjr
##bcxb
aviator
bachelor
##inke
indones
province
purwo
josia
monkee
amyot
moumen
abdes
gillin
healing
redding
##trall
drugs
exmor
pragma
##cactus
awakening
##acis
##dotel
meridi
okada
jaclyn
pipeline
mcguire
beaver
ecoso
##doncker
olum
##vyco
sarith
##arguil
silavong
autoby
boutha
jenda
shinichi
frume
elbers
martes
tartar
##conta
##butyl
##nthrop
bleak
pumpkin
fool
##sieur
sorrent
mydaily
##jillo
##ggart
nabu
onye
##rgos
dwyer
noron
canterbur
venkat
##ergent
alire
0373
yohan
cult
nurse
##alcedo
##eaver
yasmin
neha
##wnews
souvon
##rabat
jnt
mccull
kraiso
fries
bonifac
##opasi
koichi
##llani
posht
blush
##kick
##alilo
mandolin
##aurer
##olbin
##dll
##undul
##aruba
jacqu
jahan
##hongpi
##ewish
gurban
##nternet
##ahed
transfa
##shool
##katil
vietcha
0938
##ackhawk
rantal
##neft
##six
##billon
ishare
##iyala
##cnv
genis
##spatial
guind
ultravis
orth
##0916
##nuol
##hevc
##6999
stankovi
##pressure
seire
##setsk
clarinet
##odoric
flush
##ková
##garve
torri
buche
##agut
##veronika
bocc
##epine
##4393
orph
fontan
asara
##ostum
##dhea
salvag
operati
##andeb
##meji
##00128
holst
##1833
informa
armen
orso
allge
##bkov
obrado
wooll
nakas
##rudel
##nnptnt
hkf
westero
##oshou
##geeta
##usie
##undin
austra
##ahaja
##splat
phyo
compo
##eward
arana
movil
armag
vinato
##amakh
##juncti
##ernie
##chado
yasushi
##nodong
##oyte
##ttab
##lusso
kawar
##rosine
##imento
##thenic
pyung
expand
##édo
ganesh
##aucher
grind
##kevich
uchis
sarne
##bmvn
##ucchi
##dqt
asiya
##eifer
##erbi
taeyo
ischi
mcmill
ksq
##ulana
##elier
##mpta
##rovirus
kofi
handle
diamon
##dhawa
phừ
sayaka
devo
thithptq
woma
##ardman
borodin
ginni
decla
belga
##snep
stavr
##attar
##arrel
##ectin
##ioman
##ckson
buyer
##ehle
warb
##adham
##nthos
shimad
adblock
##danda
##dhaf
clem
##shisa
##uangd
##arrett
##ptation
ashur
##wook
pietra
##history
andros
##avida
##vahana
cathin
##anamar
##where
##mpq
##ready
##innovation
##singapore
##pbgd
##camera
##campus
##lúi
colma
##myung
##tuấn
##btv
##skins
##prime
##ummer
##tkcn
kamb
##jakarta
deposit
transparen
##antone
##urros
##nkgo
##utopo
##arrab
mahj
##ogniti
##maima
##aibi
darlin
sebri
##drof
##gtđt
##inand
athlet
##olitho
##rquhar
##natl
##ervigo
##thuathienhue
ampicillin
avildse
awesome
chloropren
cxbip
democracy
enterovirus
epinephrin
eyebrow
faceboook
gandelsma
gwanghwamu
haussmann
jabil
khaosod
khoutphaythoun
laodongthudo
lesbian
nitroglycerin
nuoriliang
oympic
penicilin
phenylalanin
podophyll
redemption
rosalind
scenario
schmel
siluriform
sorokin
sovereign
sseayp
syndicat
thessalonik
triterpenoid
unforg
uninstall
vieclam
vostochny
vulnerab
wanderlust
warisbor
weitgenan
wilfred
aphrodi
ascorbi
esposit
invalide
poompunm
srinivasa
urimin
vnxall
vatnaj
đâù
##yudho
gharaf
hotdog
result
gravita
netherland
sudhaka
pathom
patrol
##rvath
adolph
ambient
antminer
catharin
jirisan
kritsa
mojito
epiderm
everyday
feather
gerash
moshir
potato
álvar
csskss
interfero
winnipe
resolv
atherto
dreamplex
collegia
rlx
mcgee
shelter
guanaj
somphan
markkane
criteri
carcino
chefcha
dermat
noorul
fiocc
maskana
##konos
##taichinh
tienphongbank
vietsun
rhet
hilari
wellcom
midori
fêi
vishal
98026
weinberg
fluid
jarosla
venetian
okano
robles
ubgs
wedge
karako
berker
irides
exmotion
marlboro
điôxi
pickeri
gariba
haunt
quirk
pacif
honour
proud
delpo
manivong
##orsten
superior
##negara
stoyan
guôn
khamsan
kiehl
answers
ecoba
gentlemen
petter
##olvay
abuja
gowd
giardia
##nnaly
cocker
speaking
cstđ
sagami
hoyte
gasperi
katran
noren
##rocade
vigna
monoco
hegel
pesque
narci
##16233
đnb
##oussi
bhandar
hhnh
become
chinfon
cđkt
refugee
yalu
tilbur
piak
linear
asher
nordli
northumb
##đinh
sportske
estee
##ufri
##thuexe
##0546
traveland
hollow
##juche
walde
##brunn
##nobel
kiem
##itrus
##from
junji
gustafsso
guian
arcadi
sanfr
leandr
##olette
##atisse
##ayton
##renee
##ibex
##hacking
foul
portof
##edren
publication
##ohannis
##lonik
##ryptomin
provin
##9802
##stava
##ettable
feni
##tnmt
##ossini
alphabook
##enby
vvk
##phunuvietnam
brasileir
saraso
syll
bofa
ubqlv
bojan
aurelie
##asuki
perve
morell
##idnap
sinope
molier
##iwase
##rdc
lousi
##nvlđ
observat
##otoro
hoyer
waite
moyn
csgd
carrefou
##eisler
hooge
##clav
##hiroki
##udcn
petite
##mivir
cleve
kangwon
##rocket
##akaya
##kresto
##buis
##opéra
##tavia
gosc
##ylva
constanc
##wedes
##ricol
##epok
demetriou
##hevsk
serpentin
##urano
##0117
fedorov
lisandr
chitos
##ribb
##lucona
ryok
##atcom
##ajou
##trưởng
shahar
##seif
ipic
##patia
##errick
##rsd
michala
##lftime
meadow
lennar
goodal
nilss
##liding
##2718
dexno
##ohler
##wsat
vietnamtouris
knuếc
##efur
berba
##99567
##immel
##ibisa
isoflavon
##chinell
molle
padang
homsta
##ombone
afro
goky
##styanov
hadj
parade
0987
##nimax
##naida
##arkovic
##okers
##bratha
revl
##esame
kraf
##armont
watchar
umbr
##ahrad
##ippur
leibo
barbor
##1998
##osaur
##ukka
##suite
perret
galve
efra
valje
ophi
##whr
##altima
##afia
##eiler
##boob
kisel
##hiroko
##wants
##rafter
##hihi
tkach
numb
##0555
lasagn
guidet
##lìere
emmeric
##emed
kruse
##eroua
straf
schaeff
##ulsi
basra
##wolle
##config
##fentany
##access
##faust
##fashion
##resort
##business
##family
##dụng
##students
##communications
##nguoi
koga
##ankla
leho
##triển
##stack
##boost
rosli
clemen
achar
leonin
friendl
##uptim
##ackle
##cycle
##phó
baruch
##anggun
##ndrong
##carban
elder
basqu
##hqan
##patero
##vtk
ukrain
##model
maestr
bogdanov
formic
##praba
##pindi
##trache
##syss
##acaste
##iversity
commiss
ultima
##huanshan
ingush
##correspondent
5251030
algérie
amlodipin
arabesque
autobahn
berdimuhamedo
betacaroten
consortium
curculig
diefenba
equator
euphorbia
ghasem
glutamat
jumsuit
methionin
montserra
onyedikach
prednisolon
quincke
ratchasima
retrieve
spacespeaker
swallow
takfiri
ubtcns
unfollow
vincristin
##huanqi
bartolome
chloramine
comprehensi
fibrô
sulfua
đpư
aromatic
metinee
nattokin
phuongthuan
pogreb
wanacrypt
nootropi
sideload
transaction
talaban
cherries
manutd
akkad
##savẳn
seeking
unfcc
copycat
skipper
constructor
polyuret
##tarfi
biscay
microsystem
until
smyrn
parris
deutschland
filmtec
petuni
recent
porcela
##koyak
momentum
newcasl
winwin
prefer
xiangmo
##athhm
##bhadra
welsh
fugit
jonjo
rieker
bischof
##yeuthu
séba
spets
arwu
petroleo
hoskins
##enkirche
stealth
wimmer
kiefer
epicure
ingolsta
adults
parvin
tvgf
eyeq
sunfur
babble
trigger
99245
maccabi
meters
gmgs
chantrell
hansara
celesti
luminari
issei
innocent
alcala
corbin
kikun
prici
##rugman
bahru
kadri
##leod
aurion
kuij
##racetam
##tagram
##entsu
##ourci
peanut
multiv
shekel
albor
anophe
naser
spectra
televis
##bekov
##ntanara
juric
##hupa
hupp
montie
##lucca
##elmas
modun
##buoy
ginsen
##cío
leeuw
ercol
##bayar
##vasan
##article
violen
shale
##what
porche
##artou
##finfe
pesca
##836
##wijaya
##enstat
abdalla
barrio
##dvvt
##okka
##lusion
nordic
##ably
eile
##đpt
0692342
obr
##samund
sandbo
##dvig
synaps
jianhu
massge
##usanne
kenshin
##orvin
kacha
##ipala
##bresse
astor
##bkhn
##english
##sseldor
##platin
##onjour
##urawa
karno
railro
##tebook
tơí
##shinto
lactate
##rista
##andido
nadar
lucio
##reader
korneli
##casse
##usper
##4495
rumen
##menal
##gđpy
wenji
norik
##ingdu
##capec
##8266
novell
##pictu
hikvis
##1986
súare
moriar
aqab
##yarov
##itaniya
##tevie
##ctkt
##ktur
##0366
schoen
##taske
##marine
cheerlead
##nopu
##onassis
đnq
kruege
##atimor
jalis
##pavlovsk
##athri
brunswic
##3481
##sparta
##inskaya
##ncore
##otago
##yclin
##sevier
##4113
vibran
brouss
##quyền
psl
ridie
##ryak
##aldis
##rgus
lumpe
##resson
nemat
##chrom
##usain
tambor
##issf
##jection
alexandrov
yooye
##amill
bahad
##elden
acad
##chacha
##dorj
##drid
savill
kirog
chaffe
innovatub
airliner
##chora
##obir
##unali
purcel
##redow
##maral
exotic
##kttđ
##ctbđ
##ummari
##unido
##avana
bellun
##estes
##useful
##miller
##rustic
##janov
cleverle
aldric
##palov
##muses
patan
unibe
##2598
##tiote
##allula
##eiva
##bản
##ahok
##clear
##viola
##arawa
##adder
deltare
##riyo
cuisin
##abuse
##nyos
##tourist
##awsk
narayan
##omsak
##uigene
##othar
##halilov
##wce
##stiller
##odala
##0364
##others
prosper
yuji
##paraben
##balance
##phase
##vitamin
##future
##lamov
##giadinh
##eagle
##thân
##trọng
##hospital
##sleep
##thảo
##thuận
htxdv
##flyer
##special
##vernay
roussel
##trust
##00107
##lispor
##bild
##saruk
agrime
##eshwar
##acuna
##iovas
##tomic
##ifero
##livia
canav
##sigli
##givi
skerr
hđcdgs
##trẻ
##etylen
austral
##ithum
##ristel
vnexpres
##emophil
##iloba
voyn
siphandon
##odolsk
##venor
##udmila
##omsomol
darwi
absolute
cinnamo
##culescu
##tuvanphapluat
aeronautic
betalactam
calculat
cartabia
cinéfo
ekranopla
fruitfly
gentamycin
ghebreyesus
giưã
improve
jamsil
leibni
makhachk
manfred
messerschmitt
mycophenolat
noticia
oppenheimer
pandurang
philosophy
phospholipid
pjaca
ploughshare
primrose
reinstallation
restrictions
roussillon
skyscraper
stormtrooper
sucral
tracuudiem
vikrant
webtoon
yenbai
antioqu
kutupal
largecap
mosmetro
##aphtha
0912903
bgddt
epipen
forecast
[UNUSED_0]
[UNUSED_1]
[UNUSED_2]
[UNUSED_3]
[UNUSED_4]
[UNUSED_5]
[UNUSED_6]
[UNUSED_7]
[UNUSED_8]
[UNUSED_9]
[UNUSED_10]
[UNUSED_11]
[UNUSED_12]
[UNUSED_13]
[UNUSED_14]
[UNUSED_15]
[UNUSED_16]
[UNUSED_17]
[UNUSED_18]
[UNUSED_19]
[UNUSED_20]
[UNUSED_21]
[UNUSED_22]
[UNUSED_23]
[UNUSED_24]
[UNUSED_25]
[UNUSED_26]
[UNUSED_27]
[UNUSED_28]
[UNUSED_29]
[UNUSED_30]
[UNUSED_31]
[UNUSED_32]
[UNUSED_33]
[UNUSED_34]
[UNUSED_35]
[UNUSED_36]
[UNUSED_37]
[UNUSED_38]
[UNUSED_39]
[UNUSED_40]
[UNUSED_41]
[UNUSED_42]
[UNUSED_43]
[UNUSED_44]
[UNUSED_45]
[UNUSED_46]
[UNUSED_47]
[UNUSED_48]
[UNUSED_49]
[UNUSED_50]
[UNUSED_51]
[UNUSED_52]
[UNUSED_53]
[UNUSED_54]
[UNUSED_55]
[UNUSED_56]
[UNUSED_57]
[UNUSED_58]
[UNUSED_59]
[UNUSED_60]
[UNUSED_61]
[UNUSED_62]
[UNUSED_63]
[UNUSED_64]
[UNUSED_65]
[UNUSED_66]
[UNUSED_67]
[UNUSED_68]
[UNUSED_69]
[UNUSED_70]
[UNUSED_71]
[UNUSED_72]
[UNUSED_73]
[UNUSED_74]
[UNUSED_75]
[UNUSED_76]
[UNUSED_77]
[UNUSED_78]
[UNUSED_79]
[UNUSED_80]
[UNUSED_81]
[UNUSED_82]
[UNUSED_83]
[UNUSED_84]
[UNUSED_85]
[UNUSED_86]
[UNUSED_87]
[UNUSED_88]
[UNUSED_89]
[UNUSED_90]
[UNUSED_91]
[UNUSED_92]
[UNUSED_93]
[UNUSED_94]
[UNUSED_95]
[UNUSED_96]
[UNUSED_97]
[UNUSED_98]
[UNUSED_99]
[UNUSED_100]
[UNUSED_101]
[UNUSED_102]
[UNUSED_103]
[UNUSED_104]
[UNUSED_105]
[UNUSED_106]
[UNUSED_107]
[UNUSED_108]
[UNUSED_109]
[UNUSED_110]
[UNUSED_111]
[UNUSED_112]
[UNUSED_113]
[UNUSED_114]
[UNUSED_115]
[UNUSED_116]
[UNUSED_117]
[UNUSED_118]
[UNUSED_119]
[UNUSED_120]
[UNUSED_121]
[UNUSED_122]
[UNUSED_123]
[UNUSED_124]
[UNUSED_125]
[UNUSED_126]
[UNUSED_127]
[UNUSED_128]
[UNUSED_129]
[UNUSED_130]
[UNUSED_131]
[UNUSED_132]
[UNUSED_133]
[UNUSED_134]
[UNUSED_135]
[UNUSED_136]
[UNUSED_137]
[UNUSED_138]
[UNUSED_139]
[UNUSED_140]
[UNUSED_141]
[UNUSED_142]
[UNUSED_143]
[UNUSED_144]
[UNUSED_145]
[UNUSED_146]
[UNUSED_147]
[UNUSED_148]
[UNUSED_149]
[UNUSED_150]
[UNUSED_151]
[UNUSED_152]
[UNUSED_153]
[UNUSED_154]
[UNUSED_155]
[UNUSED_156]
[UNUSED_157]
[UNUSED_158]
[UNUSED_159]
[UNUSED_160]
[UNUSED_161]
[UNUSED_162]
[UNUSED_163]
[UNUSED_164]
[UNUSED_165]
[UNUSED_166]
[UNUSED_167]
[UNUSED_168]
[UNUSED_169]
[UNUSED_170]
[UNUSED_171]
[UNUSED_172]
[UNUSED_173]
[UNUSED_174]
[UNUSED_175]
[UNUSED_176]
[UNUSED_177]
[UNUSED_178]
[UNUSED_179]
[UNUSED_180]
[UNUSED_181]
[UNUSED_182]
[UNUSED_183]
[UNUSED_184]
[UNUSED_185]
[UNUSED_186]
[UNUSED_187]
[UNUSED_188]
[UNUSED_189]
[UNUSED_190]
[UNUSED_191]
[UNUSED_192]
[UNUSED_193]
[UNUSED_194]
[UNUSED_195]
[UNUSED_196]
[UNUSED_197]
[UNUSED_198]
[UNUSED_199]
[UNUSED_200]
[UNUSED_201]
[UNUSED_202]
[UNUSED_203]
[UNUSED_204]
[UNUSED_205]
[UNUSED_206]
[UNUSED_207]
[UNUSED_208]
[UNUSED_209]
[UNUSED_210]
[UNUSED_211]
[UNUSED_212]
[UNUSED_213]
[UNUSED_214]
[UNUSED_215]
[UNUSED_216]
[...]
